{
  "version": "1.0",
  "truncation": null,
  "padding": null,
  "added_tokens": [
    {
      "id": 0,
      "content": "<|S|>",
      "single_word": false,
      "lstrip": false,
      "rstrip": false,
      "normalized": false,
      "special": true
    },
    {
      "id": 1,
      "content": "<|PAD|>",
      "single_word": false,
      "lstrip": false,
      "rstrip": false,
      "normalized": false,
      "special": true
    },
    {
      "id": 2,
      "content": "<|E|>",
      "single_word": false,
      "lstrip": false,
      "rstrip": false,
      "normalized": false,
      "special": true
    },
    {
      "id": 3,
      "content": "<|UNK|>",
      "single_word": false,
      "lstrip": false,
      "rstrip": false,
      "normalized": false,
      "special": true
    },
    {
      "id": 4,
      "content": "<|MASK|>",
      "single_word": false,
      "lstrip": false,
      "rstrip": false,
      "normalized": false,
      "special": true
    }
  ],
  "normalizer": {
    "type": "Sequence",
    "normalizers": [
      {
        "type": "NFD"
      },
      {
        "type": "StripAccents"
      }
    ]
  },
  "pre_tokenizer": {
    "type": "ByteLevel",
    "add_prefix_space": true,
    "trim_offsets": true,
    "use_regex": true
  },
  "post_processor": null,
  "decoder": null,
  "model": {
    "type": "BPE",
    "dropout": null,
    "unk_token": "<|UNK|>",
    "continuing_subword_prefix": null,
    "end_of_word_suffix": null,
    "fuse_unk": false,
    "byte_fallback": false,
    "ignore_merges": false,
    "vocab": {
      "<|S|>": 0,
      "<|PAD|>": 1,
      "<|E|>": 2,
      "<|UNK|>": 3,
      "<|MASK|>": 4,
      "\"": 5,
      "$": 6,
      "%": 7,
      "&": 8,
      "'": 9,
      "(": 10,
      ")": 11,
      ",": 12,
      "-": 13,
      ".": 14,
      "/": 15,
      "0": 16,
      "1": 17,
      "2": 18,
      "3": 19,
      "4": 20,
      "5": 21,
      "6": 22,
      "7": 23,
      "8": 24,
      "9": 25,
      ":": 26,
      ";": 27,
      "=": 28,
      "@": 29,
      "A": 30,
      "B": 31,
      "C": 32,
      "D": 33,
      "E": 34,
      "F": 35,
      "G": 36,
      "H": 37,
      "I": 38,
      "J": 39,
      "K": 40,
      "L": 41,
      "M": 42,
      "N": 43,
      "O": 44,
      "P": 45,
      "Q": 46,
      "R": 47,
      "S": 48,
      "T": 49,
      "U": 50,
      "V": 51,
      "W": 52,
      "X": 53,
      "Y": 54,
      "Z": 55,
      "[": 56,
      "]": 57,
      "a": 58,
      "b": 59,
      "c": 60,
      "d": 61,
      "e": 62,
      "f": 63,
      "g": 64,
      "h": 65,
      "i": 66,
      "j": 67,
      "k": 68,
      "l": 69,
      "m": 70,
      "n": 71,
      "o": 72,
      "p": 73,
      "q": 74,
      "r": 75,
      "s": 76,
      "t": 77,
      "u": 78,
      "v": 79,
      "w": 80,
      "x": 81,
      "y": 82,
      "z": 83,
      "~": 84,
      "¡": 85,
      "¢": 86,
      "£": 87,
      "¤": 88,
      "¥": 89,
      "¦": 90,
      "ª": 91,
      "«": 92,
      "®": 93,
      "¯": 94,
      "°": 95,
      "±": 96,
      "²": 97,
      "³": 98,
      "´": 99,
      "µ": 100,
      "¹": 101,
      "¼": 102,
      "½": 103,
      "¿": 104,
      "Â": 105,
      "Ã": 106,
      "â": 107,
      "ã": 108,
      "ä": 109,
      "å": 110,
      "æ": 111,
      "ç": 112,
      "è": 113,
      "é": 114,
      "ï": 115,
      "Ċ": 116,
      "Ġ": 117,
      "Ģ": 118,
      "ģ": 119,
      "Ĥ": 120,
      "ĥ": 121,
      "Ħ": 122,
      "ħ": 123,
      "Ĩ": 124,
      "Ī": 125,
      "ī": 126,
      "Ĭ": 127,
      "ĭ": 128,
      "į": 129,
      "ı": 130,
      "Ĳ": 131,
      "ĳ": 132,
      "Ĵ": 133,
      "ĵ": 134,
      "Ķ": 135,
      "Ĺ": 136,
      "ĺ": 137,
      "Ļ": 138,
      "Ľ": 139,
      "Ł": 140,
      "ł": 141,
      "Ń": 142,
      "Ġt": 143,
      "he": 144,
      "Ġa": 145,
      "in": 146,
      "Ġthe": 147,
      "er": 148,
      "on": 149,
      "Ġ,": 150,
      "ed": 151,
      "or": 152,
      "Ġs": 153,
      "Ġw": 154,
      "en": 155,
      "es": 156,
      "it": 157,
      "Ġ.": 158,
      "Ġf": 159,
      "Ġo": 160,
      "nd": 161,
      "al": 162,
      "at": 163,
      "ar": 164,
      "ing": 165,
      "Ġp": 166,
      "Ġc": 167,
      "re": 168,
      "Ġb": 169,
      "is": 170,
      "as": 171,
      "Ġin": 172,
      "Ġof": 173,
      "an": 174,
      "Ġand": 175,
      "Ġto": 176,
      "Ġm": 177,
      "Ġd": 178,
      "ou": 179,
      "ion": 180,
      "am": 181,
      "ic": 182,
      "ĠT": 183,
      "ĠC": 184,
      "le": 185,
      "Ġ1": 186,
      "ĠĊ": 187,
      "ac": 188,
      "ro": 189,
      "ĠA": 190,
      "Ġ=": 191,
      "il": 192,
      "ĠS": 193,
      "Ġh": 194,
      "Ġg": 195,
      "Ġth": 196,
      "st": 197,
      "ĠB": 198,
      "el": 199,
      "Ġre": 200,
      "ent": 201,
      "ir": 202,
      "Ġfor": 203,
      "ot": 204,
      "ad": 205,
      "ĠThe": 206,
      "Ġn": 207,
      "Ġwas": 208,
      "Ġ@": 209,
      "ur": 210,
      "ay": 211,
      "Ġl": 212,
      "om": 213,
      "ter": 214,
      "ĠM": 215,
      "Ġbe": 216,
      "Ġst": 217,
      "ĠR": 218,
      "Ġ19": 219,
      "ĠF": 220,
      "ri": 221,
      "Ġ'": 222,
      "ol": 223,
      "ĠI": 224,
      "ith": 225,
      "ow": 226,
      "ec": 227,
      "et": 228,
      "-@": 229,
      "Ġ@-@": 230,
      "us": 231,
      "Ġe": 232,
      "Ġ\"": 233,
      "Ġwith": 234,
      "ly": 235,
      "iv": 236,
      "oc": 237,
      "ĠN": 238,
      "ation": 239,
      "Ġ2": 240,
      "ame": 241,
      "ĠL": 242,
      "Ġas": 243,
      "im": 244,
      "Ġon": 245,
      "um": 246,
      "un": 247,
      "ap": 248,
      "ĠW": 249,
      "ch": 250,
      "Ġthat": 251,
      "ĠG": 252,
      "ack": 253,
      "ĠP": 254,
      "ain": 255,
      "ut": 256,
      "ĠD": 257,
      "her": 258,
      "em": 259,
      "Ġan": 260,
      "ĠH": 261,
      "ce": 262,
      "Ġat": 263,
      "ers": 264,
      "ĠJ": 265,
      "Ġby": 266,
      "ies": 267,
      "lu": 268,
      "id": 269,
      "th": 270,
      "ist": 271,
      "ĠCh": 272,
      "ĠAr": 273,
      "Ġpl": 274,
      "os": 275,
      "Ġ;": 276,
      "Ġch": 277,
      "all": 278,
      "ock": 279,
      "Ġal": 280,
      "ere": 281,
      "ig": 282,
      "Ġwere": 283,
      "Ġor": 284,
      "Ġgame": 285,
      "ver": 286,
      "Ġit": 287,
      "ĠV": 288,
      "Ġcon": 289,
      "Ġar": 290,
      "ak": 291,
      "ld": 292,
      "Ġâ": 293,
      "Ġwh": 294,
      "itt": 295,
      "ark": 296,
      "Ġde": 297,
      "ild": 298,
      "Ġr": 299,
      "ĠâĢ": 300,
      "Ġis": 301,
      "op": 302,
      "Ġse": 303,
      "ct": 304,
      "qu": 305,
      "rom": 306,
      "art": 307,
      "ĠSt": 308,
      "Ġ(": 309,
      "Ġ)": 310,
      "est": 311,
      "Ġcom": 312,
      "ab": 313,
      "les": 314,
      "alk": 315,
      "ĠâĢĵ": 316,
      "ated": 317,
      "Ġ20": 318,
      "ĠValk": 319,
      "ĠValky": 320,
      "ul": 321,
      "Ġsu": 322,
      "end": 323,
      "Ġfrom": 324,
      "ate": 325,
      "Ġhad": 326,
      "ĠValkyri": 327,
      "ear": 328,
      "ie": 329,
      "if": 330,
      "Ġte": 331,
      "ess": 332,
      "ron": 333,
      "ary": 334,
      "ous": 335,
      "and": 336,
      "low": 337,
      "Ġsp": 338,
      "ans": 339,
      "ĠValkyria": 340,
      "air": 341,
      "ĠE": 342,
      "Ġu": 343,
      "ork": 344,
      "ition": 345,
      "ĠO": 346,
      "ittle": 347,
      "gh": 348,
      "ia": 349,
      "Ġhe": 350,
      "ĠLittle": 351,
      "Ġplay": 352,
      "ost": 353,
      "ra": 354,
      "sen": 355,
      "ve": 356,
      "ound": 357,
      "ĠIn": 358,
      "Ġun": 359,
      "Ġpro": 360,
      "ason": 361,
      "ĠRock": 362,
      "ts": 363,
      "ard": 364,
      "arker": 365,
      "ge": 366,
      "umb": 367,
      "Ġteam": 368,
      "ial": 369,
      "Ġsh": 370,
      "ĠBarker": 371,
      "Ġex": 372,
      "for": 373,
      "uild": 374,
      "Ġfir": 375,
      "Ġnot": 376,
      "senal": 377,
      "Ġy": 378,
      "ity": 379,
      "Ġthem": 380,
      "ould": 381,
      "ough": 382,
      "ĠCol": 383,
      "lack": 384,
      "ment": 385,
      "pp": 386,
      "ted": 387,
      "ory": 388,
      "icles": 389,
      "ĠBlu": 390,
      "Ġfirst": 391,
      "Ġ18": 392,
      "Ġ201": 393,
      "ue": 394,
      "Ġher": 395,
      "Ġtr": 396,
      "Ġne": 397,
      "Ġ192": 398,
      "ets": 399,
      "ĠChron": 400,
      "uilding": 401,
      "ĠChronicles": 402,
      "cor": 403,
      "Ġ:": 404,
      "Ġv": 405,
      "Ġtheir": 406,
      "out": 407,
      "uring": 408,
      "ff": 409,
      "ok": 410,
      "hed": 411,
      "ely": 412,
      "ive": 413,
      "ĠJack": 414,
      "Ġ3": 415,
      "Ġare": 416,
      "ich": 417,
      "Ġhis": 418,
      "ĠColumb": 419,
      "ĠBlue": 420,
      "ĠK": 421,
      "Ġwork": 422,
      "Ġgo": 423,
      "ĠArk": 424,
      "Ġits": 425,
      "ĠJackets": 426,
      "ru": 427,
      "Ġdes": 428,
      "ill": 429,
      "ĠBlack": 430,
      "ade": 431,
      "ĠColumbus": 432,
      "00": 433,
      "so": 434,
      "ust": 435,
      "ong": 436,
      "Ġser": 437,
      "arac": 438,
      "ick": 439,
      "ign": 440,
      "aracter": 441,
      "ian": 442,
      "ious": 443,
      "ov": 444,
      "Ġ4": 445,
      "ames": 446,
      "ach": 447,
      "Ġseason": 448,
      "ĠBlackie": 449,
      "ag": 450,
      "od": 451,
      "ort": 452,
      "emb": 453,
      "Ġalso": 454,
      "Ġcomp": 455,
      "sion": 456,
      "ine": 457,
      "Ġcl": 458,
      "ĠFair": 459,
      "ĠArkans": 460,
      "hi": 461,
      "wo": 462,
      "ings": 463,
      "Ġpre": 464,
      "ant": 465,
      "ĠII": 466,
      "ime": 467,
      "ide": 468,
      "Ġcont": 469,
      "Ġyear": 470,
      "ĠArkansas": 471,
      "ĠU": 472,
      "Ġag": 473,
      "eder": 474,
      "Ġper": 475,
      "Ġcharacter": 476,
      "lay": 477,
      "ook": 478,
      "pt": 479,
      "ure": 480,
      "Ġle": 481,
      "ond": 482,
      "Ġwould": 483,
      "ally": 484,
      "Ġint": 485,
      "our": 486,
      "Ġthis": 487,
      "Ġrep": 488,
      "oth": 489,
      "ome": 490,
      "ect": 491,
      "ray": 492,
      "se": 493,
      "uc": 494,
      "vel": 495,
      "Ġk": 496,
      "Ġthey": 497,
      "Ġwin": 498,
      "ater": 499,
      "ance": 500,
      "oun": 501,
      "Ġord": 502,
      "Ġwhich": 503,
      "ik": 504,
      "iz": 505,
      "ub": 506,
      "Ġ5": 507,
      "ĠTh": 508,
      "Ġgames": 509,
      "urn": 510,
      "ĠFlow": 511,
      "able": 512,
      "ry": 513,
      "res": 514,
      "Ġtwo": 515,
      "Ġpo": 516,
      "ast": 517,
      "ased": 518,
      "Ġhas": 519,
      "ents": 520,
      "Ġstart": 521,
      "use": 522,
      "Ġspec": 523,
      "Ġup": 524,
      "cord": 525,
      ".@": 526,
      "fter": 527,
      "ip": 528,
      "oot": 529,
      "per": 530,
      "rough": 531,
      "ãģ": 532,
      "Ġab": 533,
      "ite": 534,
      "Ġbut": 535,
      "ask": 536,
      "Ġoff": 537,
      "Ġduring": 538,
      "ict": 539,
      "ĠAl": 540,
      "Ġ@.@": 541,
      "omen": 542,
      "Ġbeen": 543,
      "ower": 544,
      "Ġone": 545,
      "ĠArsenal": 546,
      "Ġund": 547,
      "Ġgoal": 548,
      "velop": 549,
      "ĠFlower": 550,
      ",@": 551,
      "gan": 552,
      "ning": 553,
      "ton": 554,
      "Ġad": 555,
      "Ġfin": 556,
      "Ġinc": 557,
      "amb": 558,
      "ĠShe": 559,
      "Ġrem": 560,
      "Ġ@,@": 561,
      "Ġ194": 562,
      "old": 563,
      "ational": 564,
      "Ġwho": 565,
      "ction": 566,
      "Ġ186": 567,
      "Ġunder": 568,
      "ave": 569,
      "lis": 570,
      "ms": 571,
      "ther": 572,
      "ãĤ": 573,
      "Ġtime": 574,
      "Ġac": 575,
      "ors": 576,
      "Ġsec": 577,
      "Ġout": 578,
      "Ġover": 579,
      "Ġmask": 580,
      "ilit": 581,
      "Ġrecord": 582,
      "Ġarsenal": 583,
      "Ġdevelop": 584,
      "ĠFairies": 585,
      "Ġinto": 586,
      "HL": 587,
      "av": 588,
      "ft": 589,
      "int": 590,
      "Ġcar": 591,
      "ree": 592,
      "Ġbuilding": 593,
      "ise": 594,
      "act": 595,
      "roy": 596,
      "ĠRe": 597,
      "apt": 598,
      "ĠGamb": 599,
      "Ġart": 600,
      "Ġdesign": 601,
      "iel": 602,
      "oy": 603,
      "pr": 604,
      "ind": 605,
      "ons": 606,
      "Ġwe": 607,
      "Ġwhe": 608,
      "ens": 609,
      "Ġpub": 610,
      "ission": 611,
      "Ġman": 612,
      "ott": 613,
      "Ġno": 614,
      "Ġ191": 615,
      "ĠIt": 616,
      "ĠHe": 617,
      "igh": 618,
      "ake": 619,
      "Ġcomm": 620,
      "ards": 621,
      "Ġprev": 622,
      "ĠGambia": 623,
      "ib": 624,
      "ire": 625,
      "led": 626,
      "red": 627,
      "Ġam": 628,
      "ore": 629,
      "Ġwomen": 630,
      "ence": 631,
      "Ġother": 632,
      "ating": 633,
      "arter": 634,
      "Ġpos": 635,
      "Ġpart": 636,
      "roop": 637,
      "ĠSe": 638,
      "Ġthan": 639,
      "Ġthrough": 640,
      "ĠBuilding": 641,
      "oci": 642,
      "ĠNHL": 643,
      "ations": 644,
      "Ġass": 645,
      "Ġcons": 646,
      "Ġsuch": 647,
      "Ġagain": 648,
      "Ġmaskray": 649,
      "ail": 650,
      "ball": 651,
      "don": 652,
      "ile": 653,
      "ran": 654,
      "Ġro": 655,
      "ered": 656,
      "Ġsm": 657,
      "ited": 658,
      "Ġfour": 659,
      "att": 660,
      "ass": 661,
      "Ġret": 662,
      "Ġrele": 663,
      "ively": 664,
      "Ġonly": 665,
      "Ġatt": 666,
      "Ġall": 667,
      "vern": 668,
      "lowing": 669,
      "Ġ2011": 670,
      "Ġnew": 671,
      "Ġseries": 672,
      "ember": 673,
      "Ġcontin": 674,
      "ĠUn": 675,
      "ootball": 676,
      "Ġprevious": 677,
      "fer": 678,
      "ied": 679,
      "ph": 680,
      "ren": 681,
      "we": 682,
      "Ġ6": 683,
      "Ġ7": 684,
      "Ġj": 685,
      "Ġus": 686,
      "one": 687,
      "its": 688,
      "reak": 689,
      "ash": 690,
      "Ġmade": 691,
      "Ġdra": 692,
      "ice": 693,
      "ĠTower": 694,
      "ell": 695,
      "Ġlos": 696,
      "Ġbeing": 697,
      "Ġ193": 698,
      "Ġev": 699,
      "ived": 700,
      "lud": 701,
      "ildren": 702,
      "ular": 703,
      "Ġtrade": 704,
      "Ġabout": 705,
      "Ġinclud": 706,
      "roops": 707,
      "aw": 708,
      "og": 709,
      "ral": 710,
      "Ġqu": 711,
      "Ġtroops": 712,
      "Ġapp": 713,
      "enc": 714,
      "Ġfl": 715,
      "Ġcan": 716,
      "ase": 717,
      "Ġmost": 718,
      "Ġmilit": 719,
      "ĠCon": 720,
      "ace": 721,
      "Ġhave": 722,
      "Ġthree": 723,
      "str": 724,
      "Ġrece": 725,
      "ĠFe": 726,
      "ollowing": 727,
      "ĠLe": 728,
      "Ġres": 729,
      "ĠIII": 730,
      "ĠAll": 731,
      "Ġremain": 732,
      "Ġsecond": 733,
      "Ġagainst": 734,
      "attle": 735,
      "au": 736,
      "oh": 737,
      "ric": 738,
      "rist": 739,
      "ued": 740,
      "xt": 741,
      "Ġafter": 742,
      "Ġsc": 743,
      "Ġwor": 744,
      "Ġfound": 745,
      "Ġfran": 746,
      "Ġfootball": 747,
      "Ġcol": 748,
      "ister": 749,
      "Ġinter": 750,
      "Ġmission": 751,
      "Ġdis": 752,
      "ĠCroy": 753,
      "ĠAn": 754,
      "ĠBook": 755,
      "urch": 756,
      "Ġbegan": 757,
      "Ġstory": 758,
      "Ġear": 759,
      "ĠNash": 760,
      "ĠWar": 761,
      "chise": 762,
      "ĠChrist": 763,
      "igin": 764,
      "Ġorigin": 765,
      "ĠEd": 766,
      "useum": 767,
      "Ġspecies": 768,
      "Ġdevelopment": 769,
      "Ġweap": 770,
      "Ġsmall": 771,
      "Ġfranchise": 772,
      "ĠCroydon": 773,
      "mer": 774,
      "ne": 775,
      "Ġen": 776,
      "Ġri": 777,
      "Ġim": 778,
      "Ġshe": 779,
      "ener": 780,
      "ales": 781,
      "Ġmain": 782,
      "Ġdue": 783,
      "Ġ12": 784,
      "Ġthir": 785,
      "ays": 786,
      "Ġlater": 787,
      "Ġbec": 788,
      "Ġbet": 789,
      "Ġstated": 790,
      "own": 791,
      "ĠNam": 792,
      "ĠGall": 793,
      "lub": 794,
      "istory": 795,
      "abor": 796,
      "Ġexp": 797,
      "Ġtheme": 798,
      "Ġserv": 799,
      "ike": 800,
      "lished": 801,
      "Ġreturn": 802,
      "Ġthird": 803,
      "aj": 804,
      "age": 805,
      "bru": 806,
      "ges": 807,
      "ix": 808,
      "med": 809,
      "nance": 810,
      "play": 811,
      "son": 812,
      "ty": 813,
      "wn": 814,
      "ãĥ": 815,
      "Ġend": 816,
      "Ġ00": 817,
      "orn": 818,
      "Ġsk": 819,
      "Ġsur": 820,
      "Ġsold": 821,
      "Ġsister": 822,
      "Ġfe": 823,
      "Ġpain": 824,
      "Ġpost": 825,
      "Ġpick": 826,
      "Ġco": 827,
      "Ġcould": 828,
      "Ġboth": 829,
      "ish": 830,
      "ision": 831,
      "anc": 832,
      "Ġme": 833,
      "Ġmore": 834,
      "ĠAs": 835,
      "ily": 836,
      "eless": 837,
      "enter": 838,
      "ĠMac": 839,
      "ety": 840,
      "Ġele": 841,
      "unition": 842,
      "aph": 843,
      "ĠWor": 844,
      "ĠJoh": 845,
      "Ġwhile": 846,
      "Ġ200": 847,
      "ender": 848,
      "iew": 849,
      "ford": 850,
      "fore": 851,
      "Ġ2012": 852,
      "Ġworks": 853,
      "Ġyears": 854,
      "Ġcharacters": 855,
      "Ġpoin": 856,
      "ield": 857,
      "Ġwhen": 858,
      "ween": 859,
      "Ġmilitary": 860,
      "ĠFebru": 861,
      "Ġbetween": 862,
      "ĠNameless": 863,
      "Ġ000": 864,
      "ĠFebruary": 865,
      "cus": 866,
      "gr": 867,
      "iers": 868,
      "lic": 869,
      "ove": 870,
      "overn": 871,
      "pos": 872,
      "rit": 873,
      "sel": 874,
      "ym": 875,
      "Ġ-": 876,
      "Ġ9": 877,
      "ĠY": 878,
      "Ġil": 879,
      "hes": 880,
      "Ġthere": 881,
      "Ġsame": 882,
      "Ġwar": 883,
      "Ġfollowing": 884,
      "ates": 885,
      "atch": 886,
      "rew": 887,
      "ised": 888,
      "anford": 889,
      "aced": 890,
      "ĠSanford": 891,
      "Ġrec": 892,
      "other": 893,
      "Ġnational": 894,
      "tern": 895,
      "Ġstreak": 896,
      "iver": 897,
      "ĠNe": 898,
      "ĠGre": 899,
      "ĠGovern": 900,
      "ĠPlay": 901,
      "ĠDuring": 902,
      "Ġann": 903,
      "Ġany": 904,
      "ĠHow": 905,
      "lustr": 906,
      "thur": 907,
      "Ġplain": 908,
      "Ġchan": 909,
      "Ġalong": 910,
      "Ġarms": 911,
      "ended": 912,
      "Ġplayed": 913,
      "Ġprod": 914,
      "ments": 915,
      "ount": 916,
      "ized": 917,
      "ĠThis": 918,
      "Ġadd": 919,
      "ight": 920,
      "ociety": 921,
      "Ġdraft": 922,
      "Ġreceived": 923,
      "Ġoriginal": 924,
      "eneral": 925,
      "Ġillustr": 926,
      "18": 927,
      "FA": 928,
      "IFA": 929,
      "ki": 930,
      "ks": 931,
      "lock": 932,
      "my": 933,
      "ped": 934,
      "pen": 935,
      "side": 936,
      "Ġ0": 937,
      "Ġsent": 938,
      "Ġsome": 939,
      "als": 940,
      "arg": 941,
      "Ġpers": 942,
      "Ġinv": 943,
      "Ġinst": 944,
      "Ġmus": 945,
      "Ġmov": 946,
      "Ġdist": 947,
      "ĠCal": 948,
      "ĠCarter": 949,
      "ĠSociety": 950,
      "Ġhim": 951,
      "Ġrel": 952,
      "ading": 953,
      "ĠMuseum": 954,
      "Ġbefore": 955,
      "Ġstate": 956,
      "Ġ195": 957,
      "ĠFIFA": 958,
      "rib": 959,
      "aps": 960,
      "apan": 961,
      "ained": 962,
      "ĠJapan": 963,
      "Ġgameplay": 964,
      "Ġaround": 965,
      "aking": 966,
      "Ġrum": 967,
      "Ġround": 968,
      "Ġsub": 969,
      "Ġplayer": 970,
      "Ġplayers": 971,
      "Ġshot": 972,
      "Ġ1923": 973,
      "Ġcompet": 974,
      "ederal": 975,
      "Ġorder": 976,
      "Ġoffic": 977,
      "Ġcommand": 978,
      "Ġreleased": 979,
      "Ġcontinued": 980,
      "Ġused": 981,
      "Ġearly": 982,
      "ajor": 983,
      "Ġpoints": 984,
      "Ar": 985,
      "St": 986,
      "aff": 987,
      "ched": 988,
      "ever": 989,
      "feder": 990,
      "field": 991,
      "ged": 992,
      "mp": 993,
      "ob": 994,
      "ritt": 995,
      "reder": 996,
      "tic": 997,
      "til": 998,
      "und": 999,
      "uil": 1000,
      "ven": 1001,
      "Ġed": 1002,
      "Ġest": 1003,
      "Ġact": 1004,
      "onth": 1005,
      "Ġscor": 1006,
      "Ġwritt": 1007,
      "ese": 1008,
      "ities": 1009,
      "Ġfam": 1010,
      "Ġopen": 1011,
      "Ġbest": 1012,
      "Ġbook": 1013,
      "Ġbattle": 1014,
      "iss": 1015,
      "Ġmonth": 1016,
      "Ġdif": 1017,
      "outh": 1018,
      "rop": 1019,
      "ĠAfter": 1020,
      "ĠSh": 1021,
      "ĠSen": 1022,
      "Ġhous": 1023,
      "Ġhome": 1024,
      "ired": 1025,
      "Ġnumb": 1026,
      "urt": 1027,
      "ured": 1028,
      "ĠMay": 1029,
      "Ġ198": 1030,
      "ĠFreder": 1031,
      "riend": 1032,
      "ected": 1033,
      "eth": 1034,
      "ĠNov": 1035,
      "ĠGeneral": 1036,
      "uth": 1037,
      "ĠDe": 1038,
      "Ġchildren": 1039,
      "Ġdef": 1040,
      "Ġiss": 1041,
      "cted": 1042,
      "Ġsuff": 1043,
      "ific": 1044,
      "ession": 1045,
      "ĠEn": 1046,
      "Ġuntil": 1047,
      "Ġneed": 1048,
      "Ġ1920": 1049,
      "Ġclock": 1050,
      "Ġordnance": 1051,
      "resent": 1052,
      "ãģ®": 1053,
      "Ġcare": 1054,
      "Ġpublic": 1055,
      "ĠUnited": 1056,
      "Ġqual": 1057,
      "ĠConfeder": 1058,
      "Ġmissions": 1059,
      "ĠChristian": 1060,
      "ĠEdm": 1061,
      "Ġweapons": 1062,
      "Ġimp": 1063,
      "Ġpaint": 1064,
      "ĠMacAr": 1065,
      "ĠWorld": 1066,
      "ĠJohn": 1067,
      "cussion": 1068,
      "ĠPlaySt": 1069,
      "Ġproduc": 1070,
      "Ġrumors": 1071,
      "uilt": 1072,
      "Ġwritten": 1073,
      "ĠFrederick": 1074,
      "ĠNovember": 1075,
      "ĠMacArthur": 1076,
      "ĠPlayStation": 1077,
      "22": 1078,
      "cc": 1079,
      "ced": 1080,
      "ga": 1081,
      "ier": 1082,
      "line": 1083,
      "man": 1084,
      "munition": 1085,
      "pite": 1086,
      "ring": 1087,
      "round": 1088,
      "uary": 1089,
      "ÃĨ": 1090,
      "Ġ8": 1091,
      "ĠÃĨ": 1092,
      "hetic": 1093,
      "ince": 1094,
      "Ġthen": 1095,
      "erv": 1096,
      "oroth": 1097,
      "Ġsign": 1098,
      "Ġsix": 1099,
      "ndrew": 1100,
      "ather": 1101,
      "ately": 1102,
      "arge": 1103,
      "Ġpr": 1104,
      "Ġpri": 1105,
      "Ġpop": 1106,
      "Ġcal": 1107,
      "Ġcre": 1108,
      "Ġback": 1109,
      "Ġbuilt": 1110,
      "Ġind": 1111,
      "anuary": 1112,
      "Ġtow": 1113,
      "Ġmemb": 1114,
      "Ġmove": 1115,
      "Ġdec": 1116,
      "Ġdem": 1117,
      "ions": 1118,
      "amp": 1119,
      "ĠTott": 1120,
      "ĠCapt": 1121,
      "ĠClub": 1122,
      "let": 1123,
      "Ġ10": 1124,
      "rov": 1125,
      "ĠAndrew": 1126,
      "Ġhand": 1127,
      "Ġhistory": 1128,
      "Ġgr": 1129,
      "sthetic": 1130,
      "irl": 1131,
      "Ġloc": 1132,
      "Ġlast": 1133,
      "ĠMary": 1134,
      "ĠMason": 1135,
      "Ġstru": 1136,
      "Ġstaff": 1137,
      "ĠRiver": 1138,
      "Ġ196": 1139,
      "Ġ199": 1140,
      "ĠIm": 1141,
      "ĠIts": 1142,
      "Ġ23": 1143,
      "imes": 1144,
      "uns": 1145,
      "unning": 1146,
      "ĠWith": 1147,
      "ĠWork": 1148,
      "ĠWhi": 1149,
      "ĠDar": 1150,
      "ĠDoroth": 1151,
      "ĠDunning": 1152,
      "ement": 1153,
      "ĠJanuary": 1154,
      "ided": 1155,
      "ists": 1156,
      "ĠArt": 1157,
      "ĠArmy": 1158,
      "ose": 1159,
      "Ġdep": 1160,
      "Ġran": 1161,
      "Ġsever": 1162,
      "quad": 1163,
      "ĠState": 1164,
      "ĠStates": 1165,
      "ult": 1166,
      "ulation": 1167,
      "Ġsupp": 1168,
      "Ġhead": 1169,
      "Ġext": 1170,
      "Ġyoun": 1171,
      "Ġthemed": 1172,
      "Ġvar": 1173,
      "ĠKings": 1174,
      "aching": 1175,
      "Ġclass": 1176,
      "ĠFairy": 1177,
      "Ġrepair": 1178,
      "Ġ1862": 1179,
      "Ġpublished": 1180,
      "Ġammunition": 1181,
      "Ġjust": 1182,
      "Ġlosing": 1183,
      "Ġincluding": 1184,
      "awa": 1185,
      "Ġflint": 1186,
      "Ġresp": 1187,
      "Ġdisc": 1188,
      "ĠGallian": 1189,
      "Ġsoldiers": 1190,
      "Ġelements": 1191,
      "ĠYork": 1192,
      "ĠHowson": 1193,
      "Ġperson": 1194,
      "Ġfamily": 1195,
      "Ġproduced": 1196,
      "ĠÃĨsthetic": 1197,
      "Ġmembers": 1198,
      "ĠTotten": 1199,
      "ĠWhile": 1200,
      "ĠDorothy": 1201,
      "ĠDunnington": 1202,
      "Ġyoung": 1203,
      "ah": 1204,
      "az": 1205,
      "fact": 1206,
      "fric": 1207,
      "gg": 1208,
      "gin": 1209,
      "gust": 1210,
      "hind": 1211,
      "ject": 1212,
      "ling": 1213,
      "min": 1214,
      "mal": 1215,
      "ner": 1216,
      "off": 1217,
      "por": 1218,
      "pted": 1219,
      "tender": 1220,
      "ud": 1221,
      "up": 1222,
      "ugust": 1223,
      "vail": 1224,
      "ward": 1225,
      "Ġel": 1226,
      "Ġauth": 1227,
      "Ġavail": 1228,
      "ery": 1229,
      "ories": 1230,
      "orth": 1231,
      "Ġso": 1232,
      "Ġsy": 1233,
      "Ġsim": 1234,
      "itch": 1235,
      "Ġfel": 1236,
      "Ġfair": 1237,
      "Ġfive": 1238,
      "Ġfriend": 1239,
      "Ġown": 1240,
      "atur": 1241,
      "ature": 1242,
      "arr": 1243,
      "Ġcm": 1244,
      "Ġcame": 1245,
      "Ġcall": 1246,
      "Ġcrit": 1247,
      "Ġblack": 1248,
      "ished": 1249,
      "Ġinf": 1250,
      "Ġdo": 1251,
      "Ġdid": 1252,
      "Ġdest": 1253,
      "Ġdire": 1254,
      "Ġdown": 1255,
      "amed": 1256,
      "ical": 1257,
      "ĠCom": 1258,
      "Ġ11": 1259,
      "Ġ13": 1260,
      "ached": 1261,
      "ros": 1262,
      "row": 1263,
      "ĠAust": 1264,
      "ĠAfric": 1265,
      "ĠAugust": 1266,
      "ility": 1267,
      "ĠSc": 1268,
      "ĠSum": 1269,
      "ĠSpr": 1270,
      "Ġhow": 1271,
      "Ġgu": 1272,
      "Ġgre": 1273,
      "els": 1274,
      "Ġreg": 1275,
      "Ġrequ": 1276,
      "ention": 1277,
      "ential": 1278,
      "entral": 1279,
      "ury": 1280,
      "Ġlow": 1281,
      "Ġlist": 1282,
      "Ġlif": 1283,
      "Ġless": 1284,
      "Ġlike": 1285,
      "Ġbehind": 1286,
      "rid": 1287,
      "ript": 1288,
      "ett": 1289,
      "Ġeach": 1290,
      "Ġ24": 1291,
      "Ġonce": 1292,
      "une": 1293,
      "ĠPict": 1294,
      "ution": 1295,
      "Ġanime": 1296,
      "ĠChildren": 1297,
      "osed": 1298,
      "akes": 1299,
      "ĠâĢĻ": 1300,
      "que": 1301,
      "ĠEx": 1302,
      "ĠOn": 1303,
      "Ġhel": 1304,
      "Ġunit": 1305,
      "Ġunits": 1306,
      "form": 1307,
      "Ġ2010": 1308,
      "Ġdespite": 1309,
      "ector": 1310,
      "uck": 1311,
      "Ġke": 1312,
      "Ġkn": 1313,
      "Ġgoaltender": 1314,
      "Ġacqu": 1315,
      "ĠReg": 1316,
      "Ġdesigned": 1317,
      "Ġwhere": 1318,
      "Ġposit": 1319,
      "Ġpartic": 1320,
      "Ġworst": 1321,
      "ĠWarne": 1322,
      "Ġrif": 1323,
      "ĠGovernor": 1324,
      "Ġaddition": 1325,
      "Ġhouse": 1326,
      "Ġnumber": 1327,
      "Ġqualif": 1328,
      "ĠConfederate": 1329,
      "Ġimprov": 1330,
      "Ġpopular": 1331,
      "ĠCaptain": 1332,
      "Ġseveral": 1333,
      "Ġflintlock": 1334,
      "Ġauthor": 1335,
      "Ġcritic": 1336,
      "ĠAustral": 1337,
      "ĠSpring": 1338,
      "cock": 1339,
      "ful": 1340,
      "gl": 1341,
      "gart": 1342,
      "ho": 1343,
      "iod": 1344,
      "labor": 1345,
      "ool": 1346,
      "uch": 1347,
      "ufact": 1348,
      "view": 1349,
      "xim": 1350,
      "ying": 1351,
      "ych": 1352,
      "Ġ&": 1353,
      "ĠQ": 1354,
      "Ġent": 1355,
      "Ġtra": 1356,
      "Ġtake": 1357,
      "inc": 1358,
      "ines": 1359,
      "inct": 1360,
      "Ġthese": 1361,
      "ergart": 1362,
      "ont": 1363,
      "Ġsing": 1364,
      "Ġsince": 1365,
      "Ġsquad": 1366,
      "Ġwell": 1367,
      "ense": 1368,
      "Ġfem": 1369,
      "Ġfederal": 1370,
      "Ġoil": 1371,
      "ald": 1372,
      "ale": 1373,
      "ath": 1374,
      "atter": 1375,
      "arch": 1376,
      "Ġph": 1377,
      "Ġpen": 1378,
      "Ġpar": 1379,
      "Ġpol": 1380,
      "Ġprom": 1381,
      "Ġpra": 1382,
      "Ġpred": 1383,
      "Ġcit": 1384,
      "Ġcart": 1385,
      "Ġcity": 1386,
      "Ġcount": 1387,
      "Ġinj": 1388,
      "Ġmen": 1389,
      "Ġmod": 1390,
      "Ġmake": 1391,
      "Ġmuch": 1392,
      "ĠCup": 1393,
      "Ġ17": 1394,
      "aces": 1395,
      "ĠAd": 1396,
      "ĠApr": 1397,
      "ĠSak": 1398,
      "Ġthough": 1399,
      "stru": 1400,
      "ĠBy": 1401,
      "ĠBattle": 1402,
      "elph": 1403,
      "Ġreal": 1404,
      "Ġrefer": 1405,
      "aded": 1406,
      "adline": 1407,
      "adelph": 1408,
      "ĠThey": 1409,
      "ĠThere": 1410,
      "Ġlit": 1411,
      "Ġlabor": 1412,
      "Ġbegin": 1413,
      "Ġstill": 1414,
      "ĠRich": 1415,
      "ech": 1416,
      "ecess": 1417,
      "ects": 1418,
      "iving": 1419,
      "ĠNational": 1420,
      "apel": 1421,
      "chool": 1422,
      "acks": 1423,
      "ĠPres": 1424,
      "hern": 1425,
      "eman": 1426,
      "ĠHer": 1427,
      "cept": 1428,
      "ĠJune": 1429,
      "ident": 1430,
      "though": 1431,
      "Ġplace": 1432,
      "Ġchance": 1433,
      "igious": 1434,
      "Ġorgan": 1435,
      "Ġdeal": 1436,
      "Ġdeter": 1437,
      "Ġdeadline": 1438,
      "ĠSte": 1439,
      "anded": 1440,
      "Ġspir": 1441,
      "Ġheld": 1442,
      "Ġplayoff": 1443,
      "Ġprov": 1444,
      "ially": 1445,
      "Ġshort": 1446,
      "Ġ189": 1447,
      "Ġtrans": 1448,
      "Ġtraded": 1449,
      "Ġnext": 1450,
      "Ġ1929": 1451,
      "Ġgovern": 1452,
      "ague": 1453,
      "Ġpercussion": 1454,
      "Ġperiod": 1455,
      "Ġkind": 1456,
      "Ġwinning": 1457,
      "aterial": 1458,
      "Ġpoint": 1459,
      "Ġstarted": 1460,
      "iple": 1461,
      "Ġgoals": 1462,
      "Ġmanufact": 1463,
      "ible": 1464,
      "Ġthroughout": 1465,
      "Ġconsist": 1466,
      "Ġrole": 1467,
      "Ġrelease": 1468,
      "Ġloss": 1469,
      "away": 1470,
      "Ġappro": 1471,
      "Ġappear": 1472,
      "enced": 1473,
      "Ġcollabor": 1474,
      "Ġbecame": 1475,
      "Ġreturned": 1476,
      "ĠGreen": 1477,
      "ĠJapanese": 1478,
      "Ġestab": 1479,
      "Ġactiv": 1480,
      "Ġbooks": 1481,
      "Ġneeded": 1482,
      "Ġcareer": 1483,
      "ĠEdmund": 1484,
      "ervation": 1485,
      "Ġinflu": 1486,
      "Ġhowever": 1487,
      "ĠAustralia": 1488,
      "ergarten": 1489,
      "Ġcartrid": 1490,
      "ĠApril": 1491,
      "adelphia": 1492,
      "Ġkindergarten": 1493,
      "69": 1494,
      "ael": 1495,
      "aid": 1496,
      "ause": 1497,
      "ches": 1498,
      "den": 1499,
      "ey": 1500,
      "fic": 1501,
      "ffor": 1502,
      "gel": 1503,
      "hym": 1504,
      "ii": 1505,
      "io": 1506,
      "ior": 1507,
      "ient": 1508,
      "ipp": 1509,
      "jo": 1510,
      "lo": 1511,
      "loy": 1512,
      "lake": 1513,
      "mith": 1514,
      "now": 1515,
      "par": 1516,
      "rd": 1517,
      "sp": 1518,
      "ually": 1519,
      "uki": 1520,
      "ves": 1521,
      "ving": 1522,
      "vol": 1523,
      "way": 1524,
      "ze": 1525,
      "ªãĤ": 1526,
      "æĪ": 1527,
      "Ġif": 1528,
      "Ġve": 1529,
      "Ġuse": 1530,
      "Ġturn": 1531,
      "Ġtail": 1532,
      "Ġtimes": 1533,
      "hen": 1534,
      "Ġaff": 1535,
      "ores": 1536,
      "Ġsense": 1537,
      "Ġwon": 1538,
      "estern": 1539,
      "ita": 1540,
      "ital": 1541,
      "itlake": 1542,
      "Ġfans": 1543,
      "Ġold": 1544,
      "Ġoper": 1545,
      "Ġocc": 1546,
      "ative": 1547,
      "Ġpur": 1548,
      "Ġpark": 1549,
      "Ġpurch": 1550,
      "Ġpresent": 1551,
      "Ġcap": 1552,
      "Ġcards": 1553,
      "Ġclub": 1554,
      "Ġbo": 1555,
      "Ġbro": 1556,
      "Ġbel": 1557,
      "Ġball": 1558,
      "Ġbrough": 1559,
      "Ġbott": 1560,
      "ison": 1561,
      "asy": 1562,
      "Ġtook": 1563,
      "Ġmin": 1564,
      "Ġmatch": 1565,
      "Ġmother": 1566,
      "Ġmaking": 1567,
      "Ġmajor": 1568,
      "Ġmult": 1569,
      "Ġmaterial": 1570,
      "Ġdel": 1571,
      "Ġday": 1572,
      "Ġdiv": 1573,
      "Ġdut": 1574,
      "ouis": 1575,
      "amden": 1576,
      "ĠTwo": 1577,
      "ĠCan": 1578,
      "ĠCoy": 1579,
      "ĠCenter": 1580,
      "ĠCamden": 1581,
      "legr": 1582,
      "Ġ14": 1583,
      "ĠAt": 1584,
      "ĠAz": 1585,
      "Ġhigh": 1586,
      "stem": 1587,
      "Ġforce": 1588,
      "oto": 1589,
      "otes": 1590,
      "otential": 1591,
      "Ġnear": 1592,
      "Ġnamed": 1593,
      "ures": 1594,
      "Ġlim": 1595,
      "Ġlong": 1596,
      "Ġlarge": 1597,
      "ters": 1598,
      "ĠMa": 1599,
      "ĠMed": 1600,
      "ĠMajor": 1601,
      "ĠMarch": 1602,
      "Ġsting": 1603,
      "Ġstron": 1604,
      "Ġstud": 1605,
      "ĠRick": 1606,
      "ĠRav": 1607,
      "ĠRaph": 1608,
      "ĠRector": 1609,
      "ĠRhym": 1610,
      "Ġ197": 1611,
      "ried": 1612,
      "Ġep": 1613,
      "Ġequ": 1614,
      "Ġeffor": 1615,
      "Ġwithin": 1616,
      "ives": 1617,
      "ivil": 1618,
      "Ġ25": 1619,
      "ĠLouis": 1620,
      "Ġask": 1621,
      "imoto": 1622,
      "ung": 1623,
      "ĠWhen": 1624,
      "ĠGame": 1625,
      "ĠPitlake": 1626,
      "emor": 1627,
      "ements": 1628,
      "Ġanother": 1629,
      "ĠHind": 1630,
      "ĠHistory": 1631,
      "ĠHym": 1632,
      "ĠHitch": 1633,
      "ĠCharacter": 1634,
      "Ġchurch": 1635,
      "ockey": 1636,
      "Ġalthough": 1637,
      "Ġconstru": 1638,
      "Ġarmed": 1639,
      "Ġwhite": 1640,
      "itted": 1641,
      "Ġsele": 1642,
      "Ġsuper": 1643,
      "ĠOld": 1644,
      "Ġplaying": 1645,
      "Ġprot": 1646,
      "formed": 1647,
      "Ġthemes": 1648,
      "pper": 1649,
      "ĠBlues": 1650,
      "Ġvict": 1651,
      "ĠKurt": 1652,
      "Ġworked": 1653,
      "ĠArkadelphia": 1654,
      "Ġcomple": 1655,
      "hip": 1656,
      "ounced": 1657,
      "Ġorders": 1658,
      "Ġupon": 1659,
      "Ġremov": 1660,
      "Ġ1940": 1661,
      "Ġ1861": 1662,
      "Ġacros": 1663,
      "Ġoverall": 1664,
      "enseman": 1665,
      "ledge": 1666,
      "Ġposs": 1667,
      "Ġposition": 1668,
      "ĠSega": 1669,
      "ociation": 1670,
      "Ġassemb": 1671,
      "Ġevent": 1672,
      "Ġincluded": 1673,
      "ency": 1674,
      "Ġmostly": 1675,
      "ĠLead": 1676,
      "Ġremaining": 1677,
      "Ġseconds": 1678,
      "augh": 1679,
      "Ġweapon": 1680,
      "ĠGallia": 1681,
      "Ġservice": 1682,
      "Ġpostc": 1683,
      "ances": 1684,
      "ĠNew": 1685,
      "ĠGreat": 1686,
      "Ġannounced": 1687,
      "Ġchanges": 1688,
      "pedition": 1689,
      "Ġmusk": 1690,
      "ĠCalam": 1691,
      "Ġcompetition": 1692,
      "ober": 1693,
      "Ġeduc": 1694,
      "Ġscored": 1695,
      "Ġopening": 1696,
      "Ġdiffer": 1697,
      "ĠSenjo": 1698,
      "Ġdefenseman": 1699,
      "Ġissue": 1700,
      "Ġsuffered": 1701,
      "Ġprior": 1702,
      "Ġvarious": 1703,
      "Ġavailable": 1704,
      "Ġsystem": 1705,
      "Ġfelt": 1706,
      "Ġfriends": 1707,
      "Ġrequest": 1708,
      "Ġlife": 1709,
      "ĠExpedition": 1710,
      "Ġhelp": 1711,
      "Ġkept": 1712,
      "Ġknown": 1713,
      "Ġrifles": 1714,
      "Ġcitiz": 1715,
      "Ġcountry": 1716,
      "ĠSakimoto": 1717,
      "ĠRichards": 1718,
      "Ġcollaboration": 1719,
      "ĠGreenaway": 1720,
      "Ġestablished": 1721,
      "Ġcartridges": 1722,
      "æĪ¦": 1723,
      "Ġbrought": 1724,
      "Ġbottom": 1725,
      "ĠCoyotes": 1726,
      "Ġstrong": 1727,
      "ĠRaven": 1728,
      "ĠRaphael": 1729,
      "ĠRhymes": 1730,
      "ĠHindman": 1731,
      "ĠHymn": 1732,
      "ĠHitchcock": 1733,
      "Ġacross": 1734,
      "Vision": 1735,
      "ae": 1736,
      "ai": 1737,
      "cl": 1738,
      "cent": 1739,
      "csen": 1740,
      "dow": 1741,
      "ep": 1742,
      "ead": 1743,
      "eter": 1744,
      "eff": 1745,
      "gon": 1746,
      "guns": 1747,
      "ience": 1748,
      "ique": 1749,
      "kl": 1750,
      "ll": 1751,
      "land": 1752,
      "lass": 1753,
      "log": 1754,
      "laced": 1755,
      "mission": 1756,
      "ned": 1757,
      "niel": 1758,
      "niew": 1759,
      "oach": 1760,
      "pear": 1761,
      "ski": 1762,
      "tain": 1763,
      "uj": 1764,
      "ues": 1765,
      "ual": 1766,
      "uals": 1767,
      "ved": 1768,
      "¡ãĥ": 1769,
      "¥ãĥ": 1770,
      "¦ãĤ": 1771,
      "«ãĤ": 1772,
      "´ãģ®": 1773,
      "åł": 1774,
      "Ġ[": 1775,
      "Ġ]": 1776,
      "ĠæĪ¦": 1777,
      "Ńãĥ": 1778,
      "Ġter": 1779,
      "hest": 1780,
      "ink": 1781,
      "ins": 1782,
      "inery": 1783,
      "eding": 1784,
      "ord": 1785,
      "oric": 1786,
      "orts": 1787,
      "orring": 1788,
      "Ġsit": 1789,
      "Ġsom": 1790,
      "Ġsales": 1791,
      "Ġsung": 1792,
      "Ġwid": 1793,
      "eng": 1794,
      "enar": 1795,
      "enix": 1796,
      "itar": 1797,
      "ither": 1798,
      "Ġful": 1799,
      "Ġfif": 1800,
      "Ġfron": 1801,
      "Ġflow": 1802,
      "Ġfold": 1803,
      "Ġfree": 1804,
      "Ġfont": 1805,
      "Ġob": 1806,
      "alf": 1807,
      "ata": 1808,
      "ator": 1809,
      "ators": 1810,
      "atively": 1811,
      "atform": 1812,
      "Ġpan": 1813,
      "Ġpap": 1814,
      "Ġpack": 1815,
      "Ġpair": 1816,
      "Ġport": 1817,
      "Ġcor": 1818,
      "Ġcamp": 1819,
      "ret": 1820,
      "Ġbas": 1821,
      "Ġbuild": 1822,
      "Ġbod": 1823,
      "Ġbased": 1824,
      "Ġbreak": 1825,
      "Ġbuck": 1826,
      "isod": 1827,
      "ismal": 1828,
      "isniew": 1829,
      "Ġincor": 1830,
      "any": 1831,
      "Ġmy": 1832,
      "Ġmor": 1833,
      "Ġmil": 1834,
      "Ġmark": 1835,
      "Ġmuseum": 1836,
      "Ġmunition": 1837,
      "Ġdet": 1838,
      "Ġdied": 1839,
      "Ġdays": 1840,
      "ougl": 1841,
      "ional": 1842,
      "aments": 1843,
      "ics": 1844,
      "ĠTre": 1845,
      "ĠCurt": 1846,
      "ĠCoach": 1847,
      "ley": 1848,
      "Ġ15": 1849,
      "roph": 1850,
      "ĠAb": 1851,
      "ilar": 1852,
      "ĠSp": 1853,
      "Ġgen": 1854,
      "Ġgirl": 1855,
      "Ġglass": 1856,
      "eling": 1857,
      "ently": 1858,
      "ote": 1859,
      "otter": 1860,
      "ady": 1861,
      "ades": 1862,
      "Ġname": 1863,
      "Ġlotter": 1864,
      "omes": 1865,
      "ĠMc": 1866,
      "ĠMe": 1867,
      "ĠMus": 1868,
      "ĠMost": 1869,
      "ĠMilit": 1870,
      "ĠMiss": 1871,
      "Ġstained": 1872,
      "Ġstores": 1873,
      "ĠRus": 1874,
      "ĠFor": 1875,
      "ĠFollowing": 1876,
      "ĠFederal": 1877,
      "ĠFuj": 1878,
      "ols": 1879,
      "olog": 1880,
      "ece": 1881,
      "ecut": 1882,
      "Ġey": 1883,
      "ĠNo": 1884,
      "ĠNorth": 1885,
      "Ġ28": 1886,
      "ĠLt": 1887,
      "ĠLast": 1888,
      "imated": 1889,
      "umes": 1890,
      "aples": 1891,
      "ĠWomen": 1892,
      "ĠWald": 1893,
      "ĠWisniew": 1894,
      "ĠGu": 1895,
      "ĠGard": 1896,
      "ĠGround": 1897,
      "ĠGirl": 1898,
      "ĠPro": 1899,
      "ĠPark": 1900,
      "ĠPost": 1901,
      "ĠPho": 1902,
      "ĠPotential": 1903,
      "ĠDra": 1904,
      "ĠDue": 1905,
      "ĠDah": 1906,
      "ĠDougl": 1907,
      "ĠHar": 1908,
      "ĠHall": 1909,
      "ĠJames": 1910,
      "ĠJeff": 1911,
      "ides": 1912,
      "idence": 1913,
      "throp": 1914,
      "istr": 1915,
      "istoric": 1916,
      "ĠChild": 1917,
      "ĠChurch": 1918,
      "ĠArniel": 1919,
      "Ġplan": 1920,
      "Ġplaced": 1921,
      "Ġplatform": 1922,
      "osp": 1923,
      "Ġchild": 1924,
      "Ġchapel": 1925,
      "allen": 1926,
      "Ġallow": 1927,
      "Ġconv": 1928,
      "aken": 1929,
      "Ġdeath": 1930,
      "Ġren": 1931,
      "Ġrather": 1932,
      "Ġseven": 1933,
      "cture": 1934,
      "ĠStar": 1935,
      "ĠStorring": 1936,
      "ĠStaples": 1937,
      "abric": 1938,
      "ability": 1939,
      "ulty": 1940,
      "Ġtelegr": 1941,
      "rons": 1942,
      "ously": 1943,
      "Ġspe": 1944,
      "ĠEach": 1945,
      "ĠEmp": 1946,
      "ĠOrd": 1947,
      "Ġunique": 1948,
      "Ġprob": 1949,
      "Ġprof": 1950,
      "Ġshap": 1951,
      "Ġnoted": 1952,
      "Ġtrading": 1953,
      "Ġ1925": 1954,
      "Ġvis": 1955,
      "Ġvide": 1956,
      "ĠKnow": 1957,
      "ills": 1958,
      "ongs": 1959,
      "Ġ422": 1960,
      "achinery": 1961,
      "ago": 1962,
      "aged": 1963,
      "agaz": 1964,
      "orthern": 1965,
      "hib": 1966,
      "Ġcontent": 1967,
      "ptember": 1968,
      "Ġlead": 1969,
      "Ġleft": 1970,
      "Ġrepresent": 1971,
      "Ġreplaced": 1972,
      "Ġwindow": 1973,
      "Ġ54": 1974,
      "Ġ500": 1975,
      "ĠThat": 1976,
      "perial": 1977,
      "Ġfinal": 1978,
      "Ġfinished": 1979,
      "Ġ1942": 1980,
      "Ġ1943": 1981,
      "Ġ1948": 1982,
      "Ġ1863": 1983,
      "lish": 1984,
      "ãĤ¦ãĤ": 1985,
      "Ġacc": 1986,
      "Ġoutside": 1987,
      "Ġrecorded": 1988,
      "Ġdeveloped": 1989,
      "avy": 1990,
      "aving": 1991,
      "inting": 1992,
      "aptismal": 1993,
      "Ġartist": 1994,
      "press": 1995,
      "Ġmany": 1996,
      "Ġ1918": 1997,
      "Ġcommon": 1998,
      "iber": 1999,
      "arters": 2000,
      "ĠSeptember": 2001,
      "Ġassociation": 2002,
      "Ġconsid": 2003,
      "Ġmaskrays": 2004,
      "ĠUnion": 2005,
      "Ġpreviously": 2006,
      "Ġ75": 2007,
      "Ġusing": 2008,
      "Ġdraw": 2009,
      "Ġ1933": 2010,
      "Ġeven": 2011,
      "Ġevents": 2012,
      "Ġflo": 2013,
      "Ġremained": 2014,
      "Ġcolor": 2015,
      "Ġinterview": 2016,
      "ĠAngel": 2017,
      "Ġenem": 2018,
      "Ġexpanded": 2019,
      "Ġserved": 2020,
      "orns": 2021,
      "Ġsket": 2022,
      "Ġsurr": 2023,
      "Ġsurround": 2024,
      "Ġcoaching": 2025,
      "self": 2026,
      "ĠGovernment": 2027,
      "Ġannot": 2028,
      "Ġillustrated": 2029,
      "1822": 2030,
      "Ġinvol": 2031,
      "Ġmusic": 2032,
      "Ġdistrib": 2033,
      "Ġreligious": 2034,
      "Ġshotguns": 2035,
      "Ġedition": 2036,
      "Ġbattlefield": 2037,
      "issipp": 2038,
      "Ġdiffic": 2039,
      "ĠEng": 2040,
      "Ġpaintings": 2041,
      "Ġindic": 2042,
      "Ġtower": 2043,
      "Ġtowards": 2044,
      "Ġdemo": 2045,
      "Ġlocated": 2046,
      "Ġstrugg": 2047,
      "Ġstructure": 2048,
      "Ġ1962": 2049,
      "ĠImperial": 2050,
      "ĠDarling": 2051,
      "ĠDarcsen": 2052,
      "Ġsupport": 2053,
      "Ġrepaired": 2054,
      "Ġcalled": 2055,
      "Ġdestroy": 2056,
      "Ġdirect": 2057,
      "ĠAfrica": 2058,
      "ĠSumm": 2059,
      "Ġguitar": 2060,
      "ette": 2061,
      "ĠPictures": 2062,
      "Ġpositive": 2063,
      "Ġparticip": 2064,
      "Ġimprovements": 2065,
      "ĠQue": 2066,
      "Ġtraw": 2067,
      "Ġfemales": 2068,
      "Ġpraised": 2069,
      "Ġpredecess": 2070,
      "Ġinjured": 2071,
      "ĠBattlefield": 2072,
      "Ġreferred": 2073,
      "Ġbeginning": 2074,
      "Ġorganiz": 2075,
      "Ġmanufacture": 2076,
      "volution": 2077,
      "ªãĤ¢": 2078,
      "Ġpurpos": 2079,
      "Ġcapital": 2080,
      "Ġmultiple": 2081,
      "Ġlimited": 2082,
      "ĠMedia": 2083,
      "Ġstingray": 2084,
      "Ġepisod": 2085,
      "emorial": 2086,
      "ĠCharacters": 2087,
      "Ġcompleted": 2088,
      "Ġremoved": 2089,
      "ĠLeadeth": 2090,
      "aught": 2091,
      "Ġpostcards": 2092,
      "ĠCalamity": 2093,
      "Ġeducation": 2094,
      "Ġdifferent": 2095,
      "Ġcitizens": 2096,
      "ĠHymns": 2097,
      "¡ãĥ«ãĤ": 2098,
      "¥ãĥªãĤ¢": 2099,
      "´ãģ®ãĤ¦ãĤ": 2100,
      "åł´ãģ®ãĤ¦ãĤ": 2101,
      "ĠæĪ¦åł´ãģ®ãĤ¦ãĤ": 2102,
      "Ńãĥ¥ãĥªãĤ¢": 2103,
      "Ġsitu": 2104,
      "Ġfull": 2105,
      "Ġfront": 2106,
      "Ġincorpor": 2107,
      "Ġmunitions": 2108,
      "ĠCurtis": 2109,
      "Ġlottery": 2110,
      "ĠMusic": 2111,
      "ĠMississipp": 2112,
      "ecutive": 2113,
      "ĠWaldrons": 2114,
      "ĠWisniewski": 2115,
      "ĠGroundsel": 2116,
      "ĠPhoenix": 2117,
      "ĠDraft": 2118,
      "ĠDahau": 2119,
      "ĠDouglas": 2120,
      "Ġallowed": 2121,
      "ĠStorrington": 2122,
      "Ġvideo": 2123,
      "ĠKnowledge": 2124,
      "agazine": 2125,
      "Ġsurrounding": 2126,
      "Ġdifficulty": 2127,
      "¡ãĥ«ãĤŃãĥ¥ãĥªãĤ¢": 2128,
      "ĠæĪ¦åł´ãģ®ãĤ¦ãĤ¡ãĥ«ãĤŃãĥ¥ãĥªãĤ¢": 2129,
      "ĠMississippi": 2130,
      "LC": 2131,
      "aet": 2132,
      "aul": 2133,
      "bin": 2134,
      "ca": 2135,
      "co": 2136,
      "ces": 2137,
      "cled": 2138,
      "du": 2139,
      "der": 2140,
      "ew": 2141,
      "eop": 2142,
      "ging": 2143,
      "hum": 2144,
      "hie": 2145,
      "haps": 2146,
      "iam": 2147,
      "jou": 2148,
      "just": 2149,
      "jected": 2150,
      "kner": 2151,
      "like": 2152,
      "mon": 2153,
      "mas": 2154,
      "mill": 2155,
      "mitted": 2156,
      "national": 2157,
      "nised": 2158,
      "ooth": 2159,
      "oice": 2160,
      "pl": 2161,
      "ris": 2162,
      "rain": 2163,
      "rary": 2164,
      "ract": 2165,
      "tal": 2166,
      "urop": 2167,
      "wa": 2168,
      "wan": 2169,
      "wise": 2170,
      "ways": 2171,
      "yp": 2172,
      "yan": 2173,
      "yle": 2174,
      "ylog": 2175,
      "ycled": 2176,
      "zawa": 2177,
      "Ġ$": 2178,
      "Ġ%": 2179,
      "ĠÂ": 2180,
      "Ġer": 2181,
      "Ġec": 2182,
      "Ġenter": 2183,
      "Ġtact": 2184,
      "Ġtone": 2185,
      "Ġtript": 2186,
      "Ġaction": 2187,
      "Ġaway": 2188,
      "infor": 2189,
      "ern": 2190,
      "ones": 2191,
      "onal": 2192,
      "onse": 2193,
      "onton": 2194,
      "onjou": 2195,
      "edic": 2196,
      "ored": 2197,
      "Ġsl": 2198,
      "Ġsw": 2199,
      "Ġsac": 2200,
      "Ġset": 2201,
      "Ġsum": 2202,
      "Ġside": 2203,
      "Ġsite": 2204,
      "Ġschool": 2205,
      "Ġway": 2206,
      "Ġwall": 2207,
      "Ġwest": 2208,
      "Ġwill": 2209,
      "ened": 2210,
      "esides": 2211,
      "ites": 2212,
      "itat": 2213,
      "itut": 2214,
      "itable": 2215,
      "Ġfis": 2216,
      "Ġfan": 2217,
      "Ġfur": 2218,
      "Ġfoc": 2219,
      "Ġfun": 2220,
      "Ġfru": 2221,
      "Ġfact": 2222,
      "alth": 2223,
      "atory": 2224,
      "ars": 2225,
      "Ġpi": 2226,
      "Ġpres": 2227,
      "Ġpower": 2228,
      "Ġpatch": 2229,
      "Ġcost": 2230,
      "Ġcour": 2231,
      "Ġcapt": 2232,
      "Ġcenter": 2233,
      "Ġcaps": 2234,
      "Ġcentral": 2235,
      "Ġcaught": 2236,
      "rel": 2237,
      "reed": 2238,
      "reat": 2239,
      "reased": 2240,
      "Ġbon": 2241,
      "Ġbir": 2242,
      "Ġband": 2243,
      "Ġbaptismal": 2244,
      "isition": 2245,
      "isia": 2246,
      "Ġinit": 2247,
      "Ġinsp": 2248,
      "Ġtop": 2249,
      "Ġtools": 2250,
      "Ġtotal": 2251,
      "Ġma": 2252,
      "Ġmar": 2253,
      "Ġmay": 2254,
      "Ġmap": 2255,
      "Ġmust": 2256,
      "Ġmember": 2257,
      "Ġmaps": 2258,
      "Ġmachinery": 2259,
      "Ġdon": 2260,
      "Ġden": 2261,
      "Ġdark": 2262,
      "Ġdone": 2263,
      "oup": 2264,
      "iced": 2265,
      "icago": 2266,
      "ĠTo": 2267,
      "ĠTun": 2268,
      "ĠTod": 2269,
      "ĠTuck": 2270,
      "ĠClay": 2271,
      "ĠCivil": 2272,
      "leased": 2273,
      "acing": 2274,
      "acles": 2275,
      "rol": 2276,
      "roit": 2277,
      "ĠAc": 2278,
      "ĠAm": 2279,
      "ĠAmer": 2280,
      "ilers": 2281,
      "ĠSu": 2282,
      "ĠSec": 2283,
      "ĠSim": 2284,
      "ĠSouth": 2285,
      "ĠSchool": 2286,
      "ĠSmith": 2287,
      "ĠSongs": 2288,
      "Ġhab": 2289,
      "Ġhalf": 2290,
      "Ġgro": 2291,
      "Ġgray": 2292,
      "Ġgarr": 2293,
      "Ġgiving": 2294,
      "Ġthose": 2295,
      "Ġthorns": 2296,
      "ĠBe": 2297,
      "Ġrejected": 2298,
      "Ġreinfor": 2299,
      "otry": 2300,
      "addon": 2301,
      "Ġnation": 2302,
      "Ġnine": 2303,
      "Ġnorthern": 2304,
      "urs": 2305,
      "ayed": 2306,
      "Ġlate": 2307,
      "Ġlive": 2308,
      "Ġline": 2309,
      "Ġlower": 2310,
      "Ġlight": 2311,
      "Ġlarg": 2312,
      "Ġlatter": 2313,
      "ommission": 2314,
      "ĠMark": 2315,
      "Ġstop": 2316,
      "Ġstand": 2317,
      "Ġstings": 2318,
      "ĠRo": 2319,
      "ĠRed": 2320,
      "ĠRif": 2321,
      "ĠRiel": 2322,
      "ĠRyan": 2323,
      "ĠFam": 2324,
      "ĠFort": 2325,
      "ĠFootball": 2326,
      "ĠFaul": 2327,
      "ries": 2328,
      "rial": 2329,
      "ĠIs": 2330,
      "eckl": 2331,
      "etic": 2332,
      "etition": 2333,
      "etroit": 2334,
      "using": 2335,
      "Ġemp": 2336,
      "Ġwithd": 2337,
      "Ġwithout": 2338,
      "ivid": 2339,
      "ivision": 2340,
      "ĠNear": 2341,
      "ĠNik": 2342,
      "ĠNatur": 2343,
      "ĠNeckl": 2344,
      "Ġ21": 2345,
      "Ġ29": 2346,
      "ĠLos": 2347,
      "ĠLater": 2348,
      "ĠLively": 2349,
      "Ġasp": 2350,
      "iment": 2351,
      "ume": 2352,
      "umn": 2353,
      "uments": 2354,
      "app": 2355,
      "ĠWings": 2356,
      "ĠWestern": 2357,
      "ĠWaddon": 2358,
      "ĠPS": 2359,
      "ĠPl": 2360,
      "ĠPer": 2361,
      "ĠPre": 2362,
      "ĠPri": 2363,
      "ĠPort": 2364,
      "ĠPeter": 2365,
      "utes": 2366,
      "utout": 2367,
      "utumn": 2368,
      "ĠDorn": 2369,
      "ĠDasy": 2370,
      "ĠDLC": 2371,
      "ĠDetroit": 2372,
      "ĠDivision": 2373,
      "empted": 2374,
      "ĠHockey": 2375,
      "ĠHistoric": 2376,
      "ĠHonjou": 2377,
      "ĠChicago": 2378,
      "Ġcharge": 2379,
      "Ġchallen": 2380,
      "Ġchoice": 2381,
      "vert": 2382,
      "ĠVan": 2383,
      "Ġarm": 2384,
      "Ġwhat": 2385,
      "itting": 2386,
      "Ġdev": 2387,
      "Ġred": 2388,
      "Ġrest": 2389,
      "Ġsequ": 2390,
      "ctober": 2391,
      "Ġcomes": 2392,
      "Ġcoming": 2393,
      "Ġcombin": 2394,
      "ably": 2395,
      "Ġsucc": 2396,
      "essful": 2397,
      "Ġspl": 2398,
      "Ġsport": 2399,
      "ansen": 2400,
      "ĠExt": 2401,
      "ĠEurop": 2402,
      "Ġuter": 2403,
      "Ġupper": 2404,
      "ĠOt": 2405,
      "ĠOur": 2406,
      "ĠOut": 2407,
      "ĠOzawa": 2408,
      "ĠOilers": 2409,
      "ĠOctober": 2410,
      "ghts": 2411,
      "Ġunable": 2412,
      "Ġunlock": 2413,
      "Ġproc": 2414,
      "Ġproject": 2415,
      "Ġteams": 2416,
      "Ġshoot": 2417,
      "Ġshutout": 2418,
      "Ġexhib": 2419,
      "Ġfired": 2420,
      "Ġnoting": 2421,
      "Ġthemsel": 2422,
      "pped": 2423,
      "Ġneg": 2424,
      "Ġ1926": 2425,
      "Ġ30": 2426,
      "ĠKate": 2427,
      "Ġdesc": 2428,
      "agement": 2429,
      "Ġcomplet": 2430,
      "Ġcomposed": 2431,
      "Ġclos": 2432,
      "Ġclosed": 2433,
      "Ġprepar": 2434,
      "antry": 2435,
      "Ġcontrol": 2436,
      "Ġagency": 2437,
      "Ġpercent": 2438,
      "Ġleading": 2439,
      "Ġleague": 2440,
      "Ġintended": 2441,
      "Ġreports": 2442,
      "sequ": 2443,
      "ucks": 2444,
      "ikes": 2445,
      "Ġspecim": 2446,
      "Ġspecial": 2447,
      "Ġspecific": 2448,
      "ãģĭ": 2449,
      "icting": 2450,
      "ĠAlong": 2451,
      "Ġadv": 2452,
      "Ġadjust": 2453,
      "Ġincreased": 2454,
      "ãĤĤ": 2455,
      "Ġacres": 2456,
      "aves": 2457,
      "Ġcarried": 2458,
      "Ġbuildings": 2459,
      "ĠRevolution": 2460,
      "Ġdesigns": 2461,
      "Ġmanagement": 2462,
      "Ġ1911": 2463,
      "Ġ1916": 2464,
      "Ġ1917": 2465,
      "Ġ1919": 2466,
      "ibrary": 2467,
      "Ġamong": 2468,
      "Ġotherwise": 2469,
      "ĠSeas": 2470,
      "Ġconsecutive": 2471,
      "Ġrow": 2472,
      "Ġroll": 2473,
      "Ġsmooth": 2474,
      "Ġfourth": 2475,
      "Ġattended": 2476,
      "Ġattempted": 2477,
      "itsu": 2478,
      "Ġ1930": 2479,
      "Ġ1936": 2480,
      "Ġinclude": 2481,
      "ognised": 2482,
      "ences": 2483,
      "Ġmilitia": 2484,
      "ĠFeeding": 2485,
      "ĠLeague": 2486,
      "Ġresul": 2487,
      "Ġworms": 2488,
      "Ġinternational": 2489,
      "ĠAnt": 2490,
      "ĠChristmas": 2491,
      "Ġoriginally": 2492,
      "ĠEdition": 2493,
      "ney": 2494,
      "Ġbecomes": 2495,
      "Ġending": 2496,
      "Ġskills": 2497,
      "Ġfeeling": 2498,
      "Ġpainted": 2499,
      "Ġpicks": 2500,
      "ĠAss": 2501,
      "ĠMacmill": 2502,
      "ĠJohansen": 2503,
      "Ġ2007": 2504,
      "gress": 2505,
      "Ġrecycled": 2506,
      "Ġrecognised": 2507,
      "ĠNeotry": 2508,
      "Ġchange": 2509,
      "Ġadded": 2510,
      "Ġillustrator": 2511,
      "184": 2512,
      "Ġinstead": 2513,
      "Ġmoved": 2514,
      "Ġmoves": 2515,
      "Ġmovement": 2516,
      "Ġdistinct": 2517,
      "ĠCalthrop": 2518,
      "Ġhimself": 2519,
      "Ġ1954": 2520,
      "Ġsubject": 2521,
      "Ġcompeted": 2522,
      "Ġofficers": 2523,
      "Ġofficial": 2524,
      "Ġcommander": 2525,
      "Ġestimated": 2526,
      "ĠShakes": 2527,
      "ĠSenators": 2528,
      "Ġ1985": 2529,
      "Ġ1988": 2530,
      "ĠDep": 2531,
      "Ġdefe": 2532,
      "Ġissued": 2533,
      "essional": 2534,
      "ĠEdmonton": 2535,
      "Ġpainting": 2536,
      "Ġsigned": 2537,
      "Ġprinc": 2538,
      "Ġcaliber": 2539,
      "Ġcreate": 2540,
      "Ġcreating": 2541,
      "Ġindivid": 2542,
      "Ġdecided": 2543,
      "Ġlocal": 2544,
      "Ġ1997": 2545,
      "ĠImca": 2546,
      "ĠWorks": 2547,
      "Ġdepicting": 2548,
      "Ġrange": 2549,
      "Ġsupply": 2550,
      "Ġheadqu": 2551,
      "Ġextent": 2552,
      "Ġclasses": 2553,
      "Ġrespect": 2554,
      "Ġresponse": 2555,
      "Ġsimp": 2556,
      "Ġsimilar": 2557,
      "Ġfairies": 2558,
      "Ġdownlo": 2559,
      "ĠComp": 2560,
      "ĠAfrican": 2561,
      "ĠScott": 2562,
      "ĠSummer": 2563,
      "Ġlisted": 2564,
      "ĠPicture": 2565,
      "Ġacquired": 2566,
      "Ġacquisition": 2567,
      "ĠRegular": 2568,
      "Ġpositively": 2569,
      "Ġparticular": 2570,
      "Ġadditional": 2571,
      "Ġqualifiers": 2572,
      "ximately": 2573,
      "ychaet": 2574,
      "Ġsingle": 2575,
      "Ġphylog": 2576,
      "Ġpenal": 2577,
      "Ġpolychaet": 2578,
      "Ġprompted": 2579,
      "Ġthought": 2580,
      "ĠPreservation": 2581,
      "ĠSteve": 2582,
      "Ġspiracles": 2583,
      "Ġprovided": 2584,
      "Ġtransl": 2585,
      "Ġtransfer": 2586,
      "Ġgovernor": 2587,
      "Ġconsisting": 2588,
      "Ġapproximately": 2589,
      "Ġappearance": 2590,
      "Ġactivities": 2591,
      "Ġveter": 2592,
      "Ġoperations": 2593,
      "Ġpurchased": 2594,
      "Ġduties": 2595,
      "ĠCanucks": 2596,
      "ĠAzure": 2597,
      "Ġnearly": 2598,
      "Ġ1973": 2599,
      "Ġefforts": 2600,
      "Ġconstructed": 2601,
      "Ġselected": 2602,
      "Ġsuperv": 2603,
      "Ġvictory": 2604,
      "Ġpossession": 2605,
      "Ġassembled": 2606,
      "Ġeventually": 2607,
      "Ġmusket": 2608,
      "clus": 2609,
      "peare": 2610,
      "Ġwidth": 2611,
      "Ġflowers": 2612,
      "Ġpanels": 2613,
      "Ġbody": 2614,
      "Ġmarked": 2615,
      "Ġdetail": 2616,
      "Ġgenus": 2617,
      "ĠMilitary": 2618,
      "ĠRushie": 2619,
      "ology": 2620,
      "Ġeyes": 2621,
      "ĠGuard": 2622,
      "ĠGarden": 2623,
      "ĠPotentials": 2624,
      "ĠHarrel": 2625,
      "Ġconvention": 2626,
      "Ġtelegraph": 2627,
      "ĠEmpire": 2628,
      "ĠOrdnance": 2629,
      "Ġprofessional": 2630,
      "Ġshaped": 2631,
      "Ġconsidered": 2632,
      "Ġdrawings": 2633,
      "Ġfloor": 2634,
      "ĠAngeles": 2635,
      "Ġenemy": 2636,
      "Ġsketch": 2637,
      "Ġsurrender": 2638,
      "Ġannotata": 2639,
      "ĠEnglish": 2640,
      "Ġdestroyed": 2641,
      "Ġdirector": 2642,
      "ĠSummary": 2643,
      "ĠQueen": 2644,
      "Ġtrawl": 2645,
      "Ġorganizations": 2646,
      "Ġfrontier": 2647,
      "eople": 2648,
      "humously": 2649,
      "Ġtactical": 2650,
      "Ġtriptych": 2651,
      "Ġsummer": 2652,
      "Ġcostumes": 2653,
      "Ġbirth": 2654,
      "ĠTunisia": 2655,
      "ĠTodd": 2656,
      "ĠClayton": 2657,
      "ĠAmeric": 2658,
      "ĠSecond": 2659,
      "Ġhabitat": 2660,
      "Ġgrayish": 2661,
      "Ġgarrison": 2662,
      "ĠRiela": 2663,
      "ĠFaulkner": 2664,
      "Ġemploy": 2665,
      "ĠNatural": 2666,
      "ĠNecklaces": 2667,
      "ĠPortable": 2668,
      "ĠDasyat": 2669,
      "Ġsuccessful": 2670,
      "ĠExtra": 2671,
      "Ġunlocked": 2672,
      "Ġshootout": 2673,
      "Ġthemselves": 2674,
      "ĠMacmillan": 2675,
      "ĠNeotrygon": 2676,
      "ĠShakespeare": 2677,
      "Ġdownload": 2678,
      "Ġphylogen": 2679,
      "Ġpolychaete": 2680,
      "40": 2681,
      "64": 2682,
      "80": 2683,
      "CN": 2684,
      "Con": 2685,
      "El": 2686,
      "GS": 2687,
      "OS": 2688,
      "TZ": 2689,
      "UCN": 2690,
      "af": 2691,
      "ax": 2692,
      "aus": 2693,
      "aun": 2694,
      "aita": 2695,
      "bs": 2696,
      "by": 2697,
      "ber": 2698,
      "bur": 2699,
      "bury": 2700,
      "bai": 2701,
      "com": 2702,
      "col": 2703,
      "cial": 2704,
      "cious": 2705,
      "chest": 2706,
      "dle": 2707,
      "day": 2708,
      "dition": 2709,
      "ee": 2710,
      "ek": 2711,
      "eor": 2712,
      "eal": 2713,
      "ele": 2714,
      "eks": 2715,
      "fers": 2716,
      "face": 2717,
      "fantry": 2718,
      "get": 2719,
      "gency": 2720,
      "hl": 2721,
      "hin": 2722,
      "hold": 2723,
      "iqu": 2724,
      "iated": 2725,
      "iTZ": 2726,
      "ji": 2727,
      "jan": 2728,
      "joy": 2729,
      "jects": 2730,
      "ko": 2731,
      "ked": 2732,
      "ken": 2733,
      "kan": 2734,
      "me": 2735,
      "mall": 2736,
      "mand": 2737,
      "most": 2738,
      "mine": 2739,
      "mosp": 2740,
      "nt": 2741,
      "ny": 2742,
      "nel": 2743,
      "ness": 2744,
      "nect": 2745,
      "nell": 2746,
      "oo": 2747,
      "oon": 2748,
      "ole": 2749,
      "oiced": 2750,
      "ping": 2751,
      "pre": 2752,
      "pan": 2753,
      "pair": 2754,
      "pond": 2755,
      "rick": 2756,
      "rant": 2757,
      "raph": 2758,
      "raments": 2759,
      "sw": 2760,
      "ses": 2761,
      "sbur": 2762,
      "ties": 2763,
      "try": 2764,
      "tawa": 2765,
      "uge": 2766,
      "uction": 2767,
      "uhl": 2768,
      "vals": 2769,
      "west": 2770,
      "work": 2771,
      "wide": 2772,
      "xes": 2773,
      "yric": 2774,
      "åĲ": 2775,
      "èª": 2776,
      "èĬ": 2777,
      "Ġ/": 2778,
      "Ġ~": 2779,
      "Ġir": 2780,
      "Ġess": 2781,
      "Ġide": 2782,
      "Ġult": 2783,
      "Ġident": 2784,
      "Ġtem": 2785,
      "Ġtip": 2786,
      "Ġtask": 2787,
      "Ġtied": 2788,
      "Ġtell": 2789,
      "Ġtarg": 2790,
      "Ġtaking": 2791,
      "Ġtying": 2792,
      "Ġtech": 2793,
      "Ġtaken": 2794,
      "here": 2795,
      "Ġach": 2796,
      "inated": 2797,
      "inear": 2798,
      "inity": 2799,
      "inant": 2800,
      "Ġtheories": 2801,
      "erous": 2802,
      "erating": 2803,
      "ertain": 2804,
      "erbai": 2805,
      "onor": 2806,
      "onom": 2807,
      "onch": 2808,
      "eded": 2809,
      "orted": 2810,
      "orrow": 2811,
      "orbury": 2812,
      "Ġsel": 2813,
      "Ġsend": 2814,
      "Ġsout": 2815,
      "Ġsave": 2816,
      "Ġsouth": 2817,
      "Ġsaid": 2818,
      "Ġsaves": 2819,
      "Ġwa": 2820,
      "Ġwom": 2821,
      "Ġwear": 2822,
      "Ġwif": 2823,
      "Ġwater": 2824,
      "Ġwrit": 2825,
      "Ġwestern": 2826,
      "ene": 2827,
      "enant": 2828,
      "itor": 2829,
      "itle": 2830,
      "itos": 2831,
      "Ġft": 2832,
      "Ġfu": 2833,
      "Ġfut": 2834,
      "Ġfant": 2835,
      "Ġfoot": 2836,
      "Ġfav": 2837,
      "Ġfire": 2838,
      "Ġfell": 2839,
      "Ġfield": 2840,
      "Ġfight": 2841,
      "Ġfather": 2842,
      "Ġfaces": 2843,
      "Ġfabric": 2844,
      "Ġopp": 2845,
      "Ġopt": 2846,
      "aly": 2847,
      "aled": 2848,
      "alter": 2849,
      "alists": 2850,
      "almon": 2851,
      "aloo": 2852,
      "atus": 2853,
      "atov": 2854,
      "attern": 2855,
      "atched": 2856,
      "atible": 2857,
      "atives": 2858,
      "arc": 2859,
      "ari": 2860,
      "arn": 2861,
      "ared": 2862,
      "aret": 2863,
      "arous": 2864,
      "arely": 2865,
      "arable": 2866,
      "arrow": 2867,
      "ingly": 2868,
      "ingaloo": 2869,
      "Ġput": 2870,
      "Ġpound": 2871,
      "Ġpast": 2872,
      "Ġpass": 2873,
      "Ġpector": 2874,
      "Ġpaid": 2875,
      "Ġpleased": 2876,
      "Ġpacing": 2877,
      "Ġpeople": 2878,
      "Ġpattern": 2879,
      "Ġcent": 2880,
      "Ġcov": 2881,
      "Ġcast": 2882,
      "Ġcorn": 2883,
      "Ġcause": 2884,
      "Ġcivil": 2885,
      "Ġcertain": 2886,
      "rey": 2887,
      "read": 2888,
      "rect": 2889,
      "Ġbl": 2890,
      "Ġbase": 2891,
      "Ġborn": 2892,
      "Ġbesides": 2893,
      "Ġborrow": 2894,
      "Ġbarely": 2895,
      "ising": 2896,
      "ases": 2897,
      "ashi": 2898,
      "asional": 2899,
      "Ġink": 2900,
      "Ġinstr": 2901,
      "Ġinformed": 2902,
      "ana": 2903,
      "ang": 2904,
      "ank": 2905,
      "aning": 2906,
      "ange": 2907,
      "anag": 2908,
      "anner": 2909,
      "anics": 2910,
      "Ġtold": 2911,
      "Ġtourn": 2912,
      "Ġmem": 2913,
      "Ġmid": 2914,
      "Ġmason": 2915,
      "Ġmone": 2916,
      "Ġmarg": 2917,
      "Ġmouth": 2918,
      "Ġmech": 2919,
      "Ġmemorial": 2920,
      "Ġmagazine": 2921,
      "Ġdou": 2922,
      "Ġdam": 2923,
      "Ġdig": 2924,
      "Ġdarker": 2925,
      "Ġdors": 2926,
      "Ġdiver": 2927,
      "Ġdiam": 2928,
      "Ġdedic": 2929,
      "Ġdang": 2930,
      "ouver": 2931,
      "outs": 2932,
      "ama": 2933,
      "aming": 2934,
      "icial": 2935,
      "icely": 2936,
      "icinity": 2937,
      "ĠTrib": 2938,
      "ĠTimes": 2939,
      "ĠTarr": 2940,
      "ĠTakes": 2941,
      "ĠTroph": 2942,
      "ĠTGS": 2943,
      "ĠCro": 2944,
      "ĠCity": 2945,
      "ĠCome": 2946,
      "ĠCons": 2947,
      "ĠCentral": 2948,
      "ĠCicely": 2949,
      "leg": 2950,
      "lection": 2951,
      "Ġ16": 2952,
      "acific": 2953,
      "rook": 2954,
      "ĠAction": 2955,
      "ĠAHL": 2956,
      "ĠAutumn": 2957,
      "ilan": 2958,
      "ilian": 2959,
      "ilatov": 2960,
      "ĠSur": 2961,
      "ĠSus": 2962,
      "ĠSand": 2963,
      "ĠSier": 2964,
      "ĠSince": 2965,
      "ĠSquad": 2966,
      "ĠSwan": 2967,
      "ĠSmall": 2968,
      "ĠSalmon": 2969,
      "Ġhit": 2970,
      "Ġhist": 2971,
      "Ġhig": 2972,
      "Ġhop": 2973,
      "Ġhour": 2974,
      "Ġhold": 2975,
      "Ġhaving": 2976,
      "Ġhonor": 2977,
      "Ġgiv": 2978,
      "Ġgun": 2979,
      "Ġgive": 2980,
      "Ġgave": 2981,
      "Ġgau": 2982,
      "Ġgener": 2983,
      "Ġgeneral": 2984,
      "Ġgained": 2985,
      "Ġgather": 2986,
      "Ġguns": 2987,
      "Ġgrow": 2988,
      "Ġgaming": 2989,
      "Ġthings": 2990,
      "ster": 2991,
      "stand": 2992,
      "stant": 2993,
      "ĠBi": 2994,
      "ĠBut": 2995,
      "ĠBoy": 2996,
      "ĠBrook": 2997,
      "eligious": 2998,
      "Ġreb": 2999,
      "Ġrear": 3000,
      "Ġreve": 3001,
      "Ġreason": 3002,
      "Ġreached": 3003,
      "Ġreview": 3004,
      "ira": 3005,
      "irst": 3006,
      "Ġforg": 3007,
      "Ġform": 3008,
      "Ġformer": 3009,
      "Ġforced": 3010,
      "Ġformal": 3011,
      "Ġforward": 3012,
      "Ġforces": 3013,
      "otroph": 3014,
      "Ġnor": 3015,
      "Ġnow": 3016,
      "Ġnost": 3017,
      "Ġnames": 3018,
      "Ġnorth": 3019,
      "Ġnecess": 3020,
      "Ġnurs": 3021,
      "Ġnarrow": 3022,
      "Ġwasn": 3023,
      "urred": 3024,
      "ayl": 3025,
      "ayashi": 3026,
      "Ġland": 3027,
      "Ġlost": 3028,
      "Ġlived": 3029,
      "Ġlacks": 3030,
      "Ġlives": 3031,
      "Ġleng": 3032,
      "Ġlibrary": 3033,
      "Ġlaun": 3034,
      "Ġlyric": 3035,
      "Ġlinear": 3036,
      "oming": 3037,
      "ominant": 3038,
      "ĠMy": 3039,
      "ĠMin": 3040,
      "ĠMas": 3041,
      "ĠMem": 3042,
      "ĠMos": 3043,
      "ĠMaj": 3044,
      "ĠMarg": 3045,
      "ĠMemorial": 3046,
      "ĠMagazine": 3047,
      "ĠManag": 3048,
      "Ġbeat": 3049,
      "Ġbears": 3050,
      "Ġstation": 3051,
      "Ġstair": 3052,
      "Ġstarter": 3053,
      "Ġstyle": 3054,
      "Ġstayed": 3055,
      "ĠRet": 3056,
      "ĠRand": 3057,
      "ĠRober": 3058,
      "ĠRece": 3059,
      "ĠRaita": 3060,
      "ĠReligious": 3061,
      "ĠFive": 3062,
      "ĠFriend": 3063,
      "ĠFabric": 3064,
      "ĠFilatov": 3065,
      "ĠFirst": 3066,
      "rie": 3067,
      "rimp": 3068,
      "olis": 3069,
      "olid": 3070,
      "ĠInd": 3071,
      "ĠIUCN": 3072,
      "eting": 3073,
      "Ġeigh": 3074,
      "Ġemer": 3075,
      "Ġeither": 3076,
      "ivip": 3077,
      "ocated": 3078,
      "ĠNa": 3079,
      "ĠNature": 3080,
      "ĠNavy": 3081,
      "ĠNorbury": 3082,
      "Ġ26": 3083,
      "Ġ27": 3084,
      "ĠLet": 3085,
      "ĠLike": 3086,
      "ĠLight": 3087,
      "ĠLord": 3088,
      "imation": 3089,
      "iments": 3090,
      "iminated": 3091,
      "umed": 3092,
      "uman": 3093,
      "unk": 3094,
      "unity": 3095,
      "apted": 3096,
      "ĠWh": 3097,
      "ĠWon": 3098,
      "ĠWild": 3099,
      "ĠWest": 3100,
      "ĠWill": 3101,
      "ĠWales": 3102,
      "ĠWish": 3103,
      "chol": 3104,
      "change": 3105,
      "ĠGen": 3106,
      "ĠGeor": 3107,
      "ĠPo": 3108,
      "ĠPeng": 3109,
      "ĠPenar": 3110,
      "ĠPonch": 3111,
      "ĠParable": 3112,
      "ĠPacific": 3113,
      "aining": 3114,
      "uted": 3115,
      "utenant": 3116,
      "ĠDes": 3117,
      "ĠDis": 3118,
      "ĠDion": 3119,
      "ĠDec": 3120,
      "ĠDistr": 3121,
      "hers": 3122,
      "emed": 3123,
      "Ġanc": 3124,
      "Ġanaly": 3125,
      "Ġanimation": 3126,
      "ĠHi": 3127,
      "ĠHas": 3128,
      "ĠHitos": 3129,
      "ĠHana": 3130,
      "ĠHolid": 3131,
      "ceeded": 3132,
      "Ġatmosp": 3133,
      "erses": 3134,
      "istant": 3135,
      "ĠChamp": 3136,
      "ĠChapel": 3137,
      "ĠArts": 3138,
      "ĠArthur": 3139,
      "Ġplans": 3140,
      "oser": 3141,
      "osen": 3142,
      "Ġchosen": 3143,
      "alled": 3144,
      "Ġallowing": 3145,
      "Ġaltern": 3146,
      "Ġalways": 3147,
      "Ġalmost": 3148,
      "Ġorchest": 3149,
      "very": 3150,
      "verty": 3151,
      "ĠVict": 3152,
      "ĠVanc": 3153,
      "Ġconf": 3154,
      "Ġconver": 3155,
      "Ġconcussion": 3156,
      "Ġconcept": 3157,
      "Ġconsequ": 3158,
      "Ġconnect": 3159,
      "Ġarmy": 3160,
      "aki": 3161,
      "Ġdepos": 3162,
      "Ġrays": 3163,
      "opolis": 3164,
      "Ġsepar": 3165,
      "artment": 3166,
      "artrain": 3167,
      "ĠStories": 3168,
      "ests": 3169,
      "esting": 3170,
      "Ġcome": 3171,
      "less": 3172,
      "ĠValkyira": 3173,
      "Ġsugg": 3174,
      "ends": 3175,
      "ĠValkyrian": 3176,
      "earch": 3177,
      "ieve": 3178,
      "ieutenant": 3179,
      "ift": 3180,
      "iful": 3181,
      "ified": 3182,
      "Ġtext": 3183,
      "Ġteaching": 3184,
      "ouse": 3185,
      "ousand": 3186,
      "Ġspikes": 3187,
      "Ġspread": 3188,
      "ĠEl": 3189,
      "ĠEar": 3190,
      "ĠOff": 3191,
      "ĠOne": 3192,
      "ĠOuth": 3193,
      "ĠOsw": 3194,
      "Ġheavy": 3195,
      "Ġhealth": 3196,
      "osts": 3197,
      "raits": 3198,
      "ĠIntern": 3199,
      "ĠInfantry": 3200,
      "Ġuns": 3201,
      "Ġproper": 3202,
      "Ġpropos": 3203,
      "Ġprosp": 3204,
      "Ġproceeded": 3205,
      "Ġshow": 3206,
      "Ġshall": 3207,
      "Ġshop": 3208,
      "Ġshould": 3209,
      "Ġshrimp": 3210,
      "Ġshift": 3211,
      "Ġexc": 3212,
      "Ġexper": 3213,
      "Ġexcept": 3214,
      "Ġexclus": 3215,
      "Ġexchange": 3216,
      "Ġnote": 3217,
      "Ġyour": 3218,
      "Ġyouth": 3219,
      "ought": 3220,
      "ĠColton": 3221,
      "Ġ187": 3222,
      "Ġ1840": 3223,
      "Ġ1880": 3224,
      "Ġ2013": 3225,
      "Ġ2014": 3226,
      "Ġtrue": 3227,
      "Ġnever": 3228,
      "Ġ1927": 3229,
      "Ġ1928": 3230,
      "Ġval": 3231,
      "Ġvol": 3232,
      "Ġventral": 3233,
      "Ġvicinity": 3234,
      "Ġvivip": 3235,
      "Ġ31": 3236,
      "Ġarea": 3237,
      "ĠColumbian": 3238,
      "ĠKub": 3239,
      "Ġworking": 3240,
      "Ġgoing": 3241,
      "ruction": 3242,
      "Ġdesper": 3243,
      "illery": 3244,
      "illae": 3245,
      "onged": 3246,
      "igned": 3247,
      "Ġ44": 3248,
      "Ġ46": 3249,
      "Ġseasons": 3250,
      "ages": 3251,
      "odist": 3252,
      "ortunity": 3253,
      "Ġcompany": 3254,
      "Ġcomposer": 3255,
      "hiro": 3256,
      "hiko": 3257,
      "Ġprey": 3258,
      "idean": 3259,
      "Ġcontract": 3260,
      "ĠUS": 3261,
      "ĠUp": 3262,
      "Ġaged": 3263,
      "Ġagent": 3264,
      "Ġagreed": 3265,
      "Ġperman": 3266,
      "Ġperform": 3267,
      "Ġperformed": 3268,
      "ptic": 3269,
      "Ġlet": 3270,
      "Ġlevel": 3271,
      "Ġleast": 3272,
      "Ġleaving": 3273,
      "Ġrepro": 3274,
      "othing": 3275,
      "sex": 3276,
      "sey": 3277,
      "Ġkm": 3278,
      "Ġkill": 3279,
      "Ġkuhl": 3280,
      "Ġwinter": 3281,
      "ikely": 3282,
      "ĠThough": 3283,
      "ĠThreat": 3284,
      "ĠThousand": 3285,
      "ĠFlowers": 3286,
      "rying": 3287,
      "respond": 3288,
      "Ġpoor": 3289,
      "Ġpoverty": 3290,
      "astic": 3291,
      "Ġstarting": 3292,
      "Ġups": 3293,
      "cording": 3294,
      "ipment": 3295,
      "ãģĦ": 3296,
      "ãģį": 3297,
      "Ġaband": 3298,
      "Ġabove": 3299,
      "Ġoffice": 3300,
      "velopment": 3301,
      "Ġadapt": 3302,
      "Ġadapted": 3303,
      "Ġfinally": 3304,
      "Ġfinish": 3305,
      "Ġfinanc": 3306,
      "Ġincident": 3307,
      "Ġremark": 3308,
      "Ġ1944": 3309,
      "Ġ1946": 3310,
      "ctioned": 3311,
      "Ġ1860": 3312,
      "Ġ1864": 3313,
      "lishers": 3314,
      "Ġaccus": 3315,
      "Ġsecret": 3316,
      "Ġovert": 3317,
      "ilities": 3318,
      "Ġrecords": 3319,
      "Ġdeveloping": 3320,
      "aval": 3321,
      "Ġcaridean": 3322,
      "Ġcarrying": 3323,
      "ĠRepair": 3324,
      "Ġartists": 3325,
      "Ġdesignated": 3326,
      "Ġwebs": 3327,
      "Ġpublishers": 3328,
      "Ġmanga": 3329,
      "Ġ1912": 3330,
      "ĠHead": 3331,
      "Ġcommenced": 3332,
      "ibility": 3333,
      "ibayashi": 3334,
      "Ġparts": 3335,
      "Ġpartially": 3336,
      "roopers": 3337,
      "ĠSeik": 3338,
      "Ġassumed": 3339,
      "Ġassigned": 3340,
      "Ġroom": 3341,
      "Ġattend": 3342,
      "Ġattrib": 3343,
      "Ġattached": 3344,
      "Ġnews": 3345,
      "Ġcontinu": 3346,
      "Ġcontinent": 3347,
      "Ġcontinue": 3348,
      "ĠUnlike": 3349,
      "ference": 3350,
      "Ġ62": 3351,
      "Ġ64": 3352,
      "Ġ65": 3353,
      "Ġ77": 3354,
      "Ġlose": 3355,
      "Ġ1934": 3356,
      "Ġ1938": 3357,
      "Ġevidence": 3358,
      "ograph": 3359,
      "Ġquick": 3360,
      "Ġquarters": 3361,
      "Ġreceiving": 3362,
      "ĠLeone": 3363,
      "ĠLeading": 3364,
      "ĠAllies": 3365,
      "Ġscr": 3366,
      "Ġscript": 3367,
      "Ġscenar": 3368,
      "Ġword": 3369,
      "Ġworld": 3370,
      "Ġfounded": 3371,
      "Ġcollection": 3372,
      "Ġdisp": 3373,
      "ĠBooks": 3374,
      "Ġearl": 3375,
      "Ġsmaller": 3376,
      "Ġeng": 3377,
      "Ġenl": 3378,
      "Ġenough": 3379,
      "Ġenjoy": 3380,
      "Ġriver": 3381,
      "Ġrights": 3382,
      "Ġrivals": 3383,
      "Ġimpress": 3384,
      "Ġbecome": 3385,
      "Ġexpected": 3386,
      "Ġserving": 3387,
      "Ġservic": 3388,
      "Ġreturning": 3389,
      "Ġskin": 3390,
      "Ġsurface": 3391,
      "Ġfew": 3392,
      "Ġfeat": 3393,
      "Ġfeatur": 3394,
      "Ġposted": 3395,
      "Ġposthumously": 3396,
      "Ġcoast": 3397,
      "Ġcoached": 3398,
      "Ġmeas": 3399,
      "Ġmeet": 3400,
      "Ġmeaning": 3401,
      "Ġelect": 3402,
      "aphics": 3403,
      "Ġ2001": 3404,
      "Ġ2008": 3405,
      "Ġ2009": 3406,
      "Ġpointed": 3407,
      "position": 3408,
      "ritory": 3409,
      "Ġ96": 3410,
      "ĠYou": 3411,
      "ĠNext": 3412,
      "ĠHowever": 3413,
      "Ġchanged": 3414,
      "Ġproduction": 3415,
      "Ġillustrations": 3416,
      "181": 3417,
      "Ġinvent": 3418,
      "Ġinstinct": 3419,
      "Ġinstruction": 3420,
      "Ġdistr": 3421,
      "Ġrelatives": 3422,
      "Ġrounds": 3423,
      "Ġsubjects": 3424,
      "Ġofficer": 3425,
      "Ġofficially": 3426,
      "Ġscore": 3427,
      "Ġscoring": 3428,
      "Ġopened": 3429,
      "Ġhoused": 3430,
      "Ġnumbers": 3431,
      "ething": 3432,
      "ĠDekan": 3433,
      "ĠDevelopment": 3434,
      "Ġsuffer": 3435,
      "ificant": 3436,
      "ĠEngl": 3437,
      "ĠEntry": 3438,
      "ãģ®èĬ": 3439,
      "Ġquality": 3440,
      "Ġsigning": 3441,
      "Ġsignificant": 3442,
      "Ġsixth": 3443,
      "Ġprinting": 3444,
      "Ġpriv": 3445,
      "Ġcreated": 3446,
      "Ġdecades": 3447,
      "Ġdecommission": 3448,
      "Ġdemand": 3449,
      "ionship": 3450,
      "ĠAndrews": 3451,
      "Ġhands": 3452,
      "Ġhandled": 3453,
      "Ġgrant": 3454,
      "Ġgroup": 3455,
      "Ġgraphics": 3456,
      "Ġ1961": 3457,
      "Ġ1994": 3458,
      "Ġ1998": 3459,
      "Ġdepot": 3460,
      "Ġrank": 3461,
      "Ġranks": 3462,
      "Ġextended": 3463,
      "Ġvari": 3464,
      "ĠFairyopolis": 3465,
      "Ġpersonnel": 3466,
      "Ġyoungest": 3467,
      "mined": 3468,
      "ministr": 3469,
      "Ġeliminated": 3470,
      "Ġavailability": 3471,
      "Ġsoon": 3472,
      "Ġsynt": 3473,
      "Ġfellow": 3474,
      "Ġfairy": 3475,
      "Ġowned": 3476,
      "arracks": 3477,
      "Ġdestitut": 3478,
      "Ġdirection": 3479,
      "ĠCommand": 3480,
      "Ġguard": 3481,
      "Ġgreen": 3482,
      "Ġgreat": 3483,
      "Ġgreater": 3484,
      "Ġregulation": 3485,
      "Ġregional": 3486,
      "Ġrequired": 3487,
      "Ġlowest": 3488,
      "Ġlisten": 3489,
      "ription": 3490,
      "Ġ247": 3491,
      "Ġhelped": 3492,
      "Ġkeep": 3493,
      "ĠRegiments": 3494,
      "Ġrifle": 3495,
      "Ġhousehold": 3496,
      "Ġqualified": 3497,
      "Ġimproved": 3498,
      "Ġflintlocks": 3499,
      "Ġauthority": 3500,
      "Ġauthorities": 3501,
      "Ġcriticis": 3502,
      "Ġcritically": 3503,
      "hood": 3504,
      "ximilian": 3505,
      "Ġentire": 3506,
      "Ġtraitor": 3507,
      "Ġsinger": 3508,
      "Ġfemale": 3509,
      "Ġoils": 3510,
      "Ġparents": 3511,
      "Ġpolice": 3512,
      "Ġpredominant": 3513,
      "Ġinjury": 3514,
      "Ġmodels": 3515,
      "Ġmodern": 3516,
      "ĠAdministr": 3517,
      "Ġlaborers": 3518,
      "Ġlaboratory": 3519,
      "ĠPresident": 3520,
      "Ġdeterior": 3521,
      "Ġdetermine": 3522,
      "Ġdetermined": 3523,
      "ĠSteele": 3524,
      "Ġspirit": 3525,
      "Ġplayoffs": 3526,
      "Ġshortly": 3527,
      "Ġ1894": 3528,
      "Ġ1895": 3529,
      "Ġgovernment": 3530,
      "Ġconsisted": 3531,
      "Ġlosses": 3532,
      "Ġapproach": 3533,
      "Ġappearances": 3534,
      "Ġactivate": 3535,
      "Ġinfluence": 3536,
      "Ġinfluenced": 3537,
      "Ġinfluences": 3538,
      "ientific": 3539,
      "miths": 3540,
      "Ġturns": 3541,
      "Ġturned": 3542,
      "Ġaffil": 3543,
      "Ġaffected": 3544,
      "Ġoldest": 3545,
      "Ġoccasional": 3546,
      "Ġoccurred": 3547,
      "Ġboxes": 3548,
      "Ġbroad": 3549,
      "Ġbroken": 3550,
      "Ġbelie": 3551,
      "Ġbelonged": 3552,
      "isonette": 3553,
      "Ġminor": 3554,
      "Ġminutes": 3555,
      "Ġmajority": 3556,
      "Ġdivision": 3557,
      "Ġdivided": 3558,
      "Ġduty": 3559,
      "ĠAzerbai": 3560,
      "Ġlonger": 3561,
      "ĠMaximilian": 3562,
      "Ġstudio": 3563,
      "Ġ1970": 3564,
      "Ġequally": 3565,
      "Ġequipment": 3566,
      "Ġeffort": 3567,
      "Ġ250": 3568,
      "Ġasked": 3569,
      "Ġasking": 3570,
      "Ġconstruction": 3571,
      "Ġprotest": 3572,
      "Ġprotect": 3573,
      "Ġvictories": 3574,
      "Ġassemble": 3575,
      "Ġmuskets": 3576,
      "Ġrequested": 3577,
      "Ġhelping": 3578,
      "ĠRaphaelites": 3579,
      "taining": 3580,
      "Ġterms": 3581,
      "inka": 3582,
      "Ġsomething": 3583,
      "Ġfifth": 3584,
      "Ġfifty": 3585,
      "Ġpaper": 3586,
      "Ġpapillae": 3587,
      "Ġpacking": 3588,
      "Ġportion": 3589,
      "Ġportraits": 3590,
      "Ġcorrect": 3591,
      "Ġcorrespond": 3592,
      "Ġbasis": 3593,
      "Ġmorning": 3594,
      "Ġmilk": 3595,
      "ĠTrees": 3596,
      "ĠSpe": 3597,
      "ĠSpec": 3598,
      "ĠMcCon": 3599,
      "ĠMcEl": 3600,
      "ĠFujii": 3601,
      "ĠGirls": 3602,
      "ĠProgress": 3603,
      "Ġplanned": 3604,
      "Ġrenov": 3605,
      "Ġrenamed": 3606,
      "Ġspeaking": 3607,
      "Ġspeech": 3608,
      "Ġproble": 3609,
      "Ġprobably": 3610,
      "Ġaccount": 3611,
      "Ġartistic": 3612,
      "Ġevening": 3613,
      "Ġcoloration": 3614,
      "Ġinvolving": 3615,
      "Ġinvolved": 3616,
      "Ġdistribution": 3617,
      "Ġindicated": 3618,
      "Ġindicating": 3619,
      "Ġstruggled": 3620,
      "ĠPicturesque": 3621,
      "Ġparticipated": 3622,
      "Ġpredecessor": 3623,
      "Ġpredecessors": 3624,
      "Ġpurpose": 3625,
      "Ġpurposes": 3626,
      "Ġepisodes": 3627,
      "Ġsituation": 3628,
      "Ġsituations": 3629,
      "Ġincorporated": 3630,
      "place": 3631,
      "waite": 3632,
      "ypes": 3633,
      "ĠÂ²": 3634,
      "Ġslender": 3635,
      "Ġsacred": 3636,
      "Ġwalls": 3637,
      "Ġfishes": 3638,
      "Ġfurther": 3639,
      "Ġfocusing": 3640,
      "Ġfunction": 3641,
      "Ġpiece": 3642,
      "Ġcourses": 3643,
      "Ġbony": 3644,
      "Ġbands": 3645,
      "Ġinitially": 3646,
      "Ġmaisonette": 3647,
      "Ġmarched": 3648,
      "Ġmustered": 3649,
      "Ġdonated": 3650,
      "Ġdenied": 3651,
      "ĠAccording": 3652,
      "ĠSupper": 3653,
      "ĠSimon": 3654,
      "Ġgroin": 3655,
      "Ġreinforce": 3656,
      "Ġstandard": 3657,
      "ĠRoad": 3658,
      "ĠRifles": 3659,
      "ĠFamitsu": 3660,
      "ĠIsland": 3661,
      "Ġwithdrew": 3662,
      "ĠNikita": 3663,
      "Ġaspects": 3664,
      "ĠPSN": 3665,
      "ĠPerhaps": 3666,
      "ĠPrior": 3667,
      "Ġchallenges": 3668,
      "Ġarmory": 3669,
      "Ġdevout": 3670,
      "Ġsequel": 3671,
      "Ġcombined": 3672,
      "Ġsplitting": 3673,
      "ĠEuropan": 3674,
      "Ġuterine": 3675,
      "ĠOttawa": 3676,
      "Ġprocured": 3677,
      "Ġnegatively": 3678,
      "Ġpercentage": 3679,
      "Ġspecimen": 3680,
      "ĠAlongside": 3681,
      "Ġadjusted": 3682,
      "ãĤĤãģ": 3683,
      "ĠSeaside": 3684,
      "Ġrolls": 3685,
      "Ġsmoothb": 3686,
      "Ġresulted": 3687,
      "ĠAntiqu": 3688,
      "ĠAssistant": 3689,
      "Ġofficials": 3690,
      "ĠDepartment": 3691,
      "Ġdefeated": 3692,
      "Ġprincip": 3693,
      "Ġindividual": 3694,
      "Ġlocalized": 3695,
      "Ġheadquarters": 3696,
      "Ġrespectively": 3697,
      "Ġsimply": 3698,
      "ĠCompetition": 3699,
      "Ġtranslation": 3700,
      "Ġtransferred": 3701,
      "Ġveteran": 3702,
      "Ġbirthplace": 3703,
      "ĠAmerican": 3704,
      "Ġhabitats": 3705,
      "Ġemployed": 3706,
      "ĠDasyatis": 3707,
      "Ġdownloadable": 3708,
      "Ġphylogenetic": 3709,
      "hinney": 3710,
      "Ġiron": 3711,
      "Ġessential": 3712,
      "Ġultim": 3713,
      "Ġtempor": 3714,
      "Ġtechn": 3715,
      "Ġachieve": 3716,
      "Ġself": 3717,
      "Ġsouthern": 3718,
      "Ġwoman": 3719,
      "Ġwife": 3720,
      "Ġwatercol": 3721,
      "Ġfantasy": 3722,
      "Ġfavor": 3723,
      "Ġopportunity": 3724,
      "Ġpounder": 3725,
      "Ġpastels": 3726,
      "Ġpectoral": 3727,
      "Ġcentury": 3728,
      "Ġcovers": 3729,
      "Ġcorners": 3730,
      "Ġcivilian": 3731,
      "Ġinstruments": 3732,
      "Ġmemory": 3733,
      "Ġmasonry": 3734,
      "Ġmoney": 3735,
      "Ġmargins": 3736,
      "Ġmechanics": 3737,
      "Ġdoub": 3738,
      "Ġdamaged": 3739,
      "Ġdorsal": 3740,
      "Ġdiamond": 3741,
      "ĠTribulation": 3742,
      "ĠTarrant": 3743,
      "ĠTakeshi": 3744,
      "ĠTrophy": 3745,
      "ĠCrowe": 3746,
      "ĠConservation": 3747,
      "ĠSurrey": 3748,
      "ĠSussex": 3749,
      "ĠSierra": 3750,
      "Ġhistotroph": 3751,
      "Ġgiven": 3752,
      "Ġgenerally": 3753,
      "ĠBrooks": 3754,
      "Ġnecessary": 3755,
      "Ġlength": 3756,
      "Ġlaunched": 3757,
      "Ġlyrics": 3758,
      "ĠMargaret": 3759,
      "ĠManager": 3760,
      "ĠReturn": 3761,
      "ĠRobert": 3762,
      "ĠFriendly": 3763,
      "Ġeighth": 3764,
      "Ġemergency": 3765,
      "ĠGeorge": 3766,
      "ĠPengu": 3767,
      "ĠPenarth": 3768,
      "ĠPonchartrain": 3769,
      "ĠDistrict": 3770,
      "ĠHitoshi": 3771,
      "Ġatmosphere": 3772,
      "ĠChampionship": 3773,
      "Ġalternating": 3774,
      "Ġorchestra": 3775,
      "ĠVictor": 3776,
      "ĠVancouver": 3777,
      "Ġconnection": 3778,
      "Ġdeposit": 3779,
      "Ġseparate": 3780,
      "ĠOuthwaite": 3781,
      "ĠOswald": 3782,
      "ĠInternational": 3783,
      "Ġexperience": 3784,
      "Ġviviparous": 3785,
      "ĠKubinka": 3786,
      "Ġpermanent": 3787,
      "Ġkuhlii": 3788,
      "ĠThreatened": 3789,
      "Ġfinancial": 3790,
      "Ġaccused": 3791,
      "ĠRepaired": 3792,
      "Ġwebsite": 3793,
      "Ġscenario": 3794,
      "Ġfeatures": 3795,
      "Ġinstinctively": 3796,
      "ĠDekanich": 3797,
      "ĠEngland": 3798,
      "ãģ®èĬ±": 3799,
      "Ġsynthes": 3800,
      "Ġdestitute": 3801,
      "ĠAdministration": 3802,
      "ĠAzerbaijan": 3803,
      "Ġcorrespondence": 3804,
      "ĠMcConnell": 3805,
      "ĠMcElhinney": 3806,
      "ĠAntiquities": 3807
    },
    "merges": [
      [
        "Ġ",
        "t"
      ],
      [
        "h",
        "e"
      ],
      [
        "Ġ",
        "a"
      ],
      [
        "i",
        "n"
      ],
      [
        "Ġt",
        "he"
      ],
      [
        "e",
        "r"
      ],
      [
        "o",
        "n"
      ],
      [
        "Ġ",
        ","
      ],
      [
        "e",
        "d"
      ],
      [
        "o",
        "r"
      ],
      [
        "Ġ",
        "s"
      ],
      [
        "Ġ",
        "w"
      ],
      [
        "e",
        "n"
      ],
      [
        "e",
        "s"
      ],
      [
        "i",
        "t"
      ],
      [
        "Ġ",
        "."
      ],
      [
        "Ġ",
        "f"
      ],
      [
        "Ġ",
        "o"
      ],
      [
        "n",
        "d"
      ],
      [
        "a",
        "l"
      ],
      [
        "a",
        "t"
      ],
      [
        "a",
        "r"
      ],
      [
        "in",
        "g"
      ],
      [
        "Ġ",
        "p"
      ],
      [
        "Ġ",
        "c"
      ],
      [
        "r",
        "e"
      ],
      [
        "Ġ",
        "b"
      ],
      [
        "i",
        "s"
      ],
      [
        "a",
        "s"
      ],
      [
        "Ġ",
        "in"
      ],
      [
        "Ġo",
        "f"
      ],
      [
        "a",
        "n"
      ],
      [
        "Ġa",
        "nd"
      ],
      [
        "Ġt",
        "o"
      ],
      [
        "Ġ",
        "m"
      ],
      [
        "Ġ",
        "d"
      ],
      [
        "o",
        "u"
      ],
      [
        "i",
        "on"
      ],
      [
        "a",
        "m"
      ],
      [
        "i",
        "c"
      ],
      [
        "Ġ",
        "T"
      ],
      [
        "Ġ",
        "C"
      ],
      [
        "l",
        "e"
      ],
      [
        "Ġ",
        "1"
      ],
      [
        "Ġ",
        "Ċ"
      ],
      [
        "a",
        "c"
      ],
      [
        "r",
        "o"
      ],
      [
        "Ġ",
        "A"
      ],
      [
        "Ġ",
        "="
      ],
      [
        "i",
        "l"
      ],
      [
        "Ġ",
        "S"
      ],
      [
        "Ġ",
        "h"
      ],
      [
        "Ġ",
        "g"
      ],
      [
        "Ġt",
        "h"
      ],
      [
        "s",
        "t"
      ],
      [
        "Ġ",
        "B"
      ],
      [
        "e",
        "l"
      ],
      [
        "Ġ",
        "re"
      ],
      [
        "en",
        "t"
      ],
      [
        "i",
        "r"
      ],
      [
        "Ġf",
        "or"
      ],
      [
        "o",
        "t"
      ],
      [
        "a",
        "d"
      ],
      [
        "ĠT",
        "he"
      ],
      [
        "Ġ",
        "n"
      ],
      [
        "Ġw",
        "as"
      ],
      [
        "Ġ",
        "@"
      ],
      [
        "u",
        "r"
      ],
      [
        "a",
        "y"
      ],
      [
        "Ġ",
        "l"
      ],
      [
        "o",
        "m"
      ],
      [
        "t",
        "er"
      ],
      [
        "Ġ",
        "M"
      ],
      [
        "Ġb",
        "e"
      ],
      [
        "Ġs",
        "t"
      ],
      [
        "Ġ",
        "R"
      ],
      [
        "Ġ1",
        "9"
      ],
      [
        "Ġ",
        "F"
      ],
      [
        "r",
        "i"
      ],
      [
        "Ġ",
        "'"
      ],
      [
        "o",
        "l"
      ],
      [
        "Ġ",
        "I"
      ],
      [
        "it",
        "h"
      ],
      [
        "o",
        "w"
      ],
      [
        "e",
        "c"
      ],
      [
        "e",
        "t"
      ],
      [
        "-",
        "@"
      ],
      [
        "Ġ@",
        "-@"
      ],
      [
        "u",
        "s"
      ],
      [
        "Ġ",
        "e"
      ],
      [
        "Ġ",
        "\""
      ],
      [
        "Ġw",
        "ith"
      ],
      [
        "l",
        "y"
      ],
      [
        "i",
        "v"
      ],
      [
        "o",
        "c"
      ],
      [
        "Ġ",
        "N"
      ],
      [
        "at",
        "ion"
      ],
      [
        "Ġ",
        "2"
      ],
      [
        "am",
        "e"
      ],
      [
        "Ġ",
        "L"
      ],
      [
        "Ġa",
        "s"
      ],
      [
        "i",
        "m"
      ],
      [
        "Ġ",
        "on"
      ],
      [
        "u",
        "m"
      ],
      [
        "u",
        "n"
      ],
      [
        "a",
        "p"
      ],
      [
        "Ġ",
        "W"
      ],
      [
        "c",
        "h"
      ],
      [
        "Ġth",
        "at"
      ],
      [
        "Ġ",
        "G"
      ],
      [
        "ac",
        "k"
      ],
      [
        "Ġ",
        "P"
      ],
      [
        "a",
        "in"
      ],
      [
        "u",
        "t"
      ],
      [
        "Ġ",
        "D"
      ],
      [
        "he",
        "r"
      ],
      [
        "e",
        "m"
      ],
      [
        "Ġa",
        "n"
      ],
      [
        "Ġ",
        "H"
      ],
      [
        "c",
        "e"
      ],
      [
        "Ġa",
        "t"
      ],
      [
        "er",
        "s"
      ],
      [
        "Ġ",
        "J"
      ],
      [
        "Ġb",
        "y"
      ],
      [
        "i",
        "es"
      ],
      [
        "l",
        "u"
      ],
      [
        "i",
        "d"
      ],
      [
        "t",
        "h"
      ],
      [
        "is",
        "t"
      ],
      [
        "ĠC",
        "h"
      ],
      [
        "ĠA",
        "r"
      ],
      [
        "Ġp",
        "l"
      ],
      [
        "o",
        "s"
      ],
      [
        "Ġ",
        ";"
      ],
      [
        "Ġc",
        "h"
      ],
      [
        "al",
        "l"
      ],
      [
        "oc",
        "k"
      ],
      [
        "Ġa",
        "l"
      ],
      [
        "er",
        "e"
      ],
      [
        "i",
        "g"
      ],
      [
        "Ġw",
        "ere"
      ],
      [
        "Ġ",
        "or"
      ],
      [
        "Ġg",
        "ame"
      ],
      [
        "v",
        "er"
      ],
      [
        "Ġ",
        "it"
      ],
      [
        "Ġ",
        "V"
      ],
      [
        "Ġc",
        "on"
      ],
      [
        "Ġa",
        "r"
      ],
      [
        "a",
        "k"
      ],
      [
        "l",
        "d"
      ],
      [
        "Ġ",
        "â"
      ],
      [
        "Ġw",
        "h"
      ],
      [
        "it",
        "t"
      ],
      [
        "ar",
        "k"
      ],
      [
        "Ġd",
        "e"
      ],
      [
        "il",
        "d"
      ],
      [
        "Ġ",
        "r"
      ],
      [
        "Ġâ",
        "Ģ"
      ],
      [
        "Ġ",
        "is"
      ],
      [
        "o",
        "p"
      ],
      [
        "Ġs",
        "e"
      ],
      [
        "c",
        "t"
      ],
      [
        "q",
        "u"
      ],
      [
        "ro",
        "m"
      ],
      [
        "ar",
        "t"
      ],
      [
        "ĠS",
        "t"
      ],
      [
        "Ġ",
        "("
      ],
      [
        "Ġ",
        ")"
      ],
      [
        "es",
        "t"
      ],
      [
        "Ġc",
        "om"
      ],
      [
        "a",
        "b"
      ],
      [
        "l",
        "es"
      ],
      [
        "al",
        "k"
      ],
      [
        "ĠâĢ",
        "ĵ"
      ],
      [
        "at",
        "ed"
      ],
      [
        "Ġ2",
        "0"
      ],
      [
        "ĠV",
        "alk"
      ],
      [
        "ĠValk",
        "y"
      ],
      [
        "u",
        "l"
      ],
      [
        "Ġs",
        "u"
      ],
      [
        "en",
        "d"
      ],
      [
        "Ġf",
        "rom"
      ],
      [
        "at",
        "e"
      ],
      [
        "Ġh",
        "ad"
      ],
      [
        "ĠValky",
        "ri"
      ],
      [
        "e",
        "ar"
      ],
      [
        "i",
        "e"
      ],
      [
        "i",
        "f"
      ],
      [
        "Ġt",
        "e"
      ],
      [
        "es",
        "s"
      ],
      [
        "r",
        "on"
      ],
      [
        "ar",
        "y"
      ],
      [
        "ou",
        "s"
      ],
      [
        "a",
        "nd"
      ],
      [
        "l",
        "ow"
      ],
      [
        "Ġs",
        "p"
      ],
      [
        "an",
        "s"
      ],
      [
        "ĠValkyri",
        "a"
      ],
      [
        "a",
        "ir"
      ],
      [
        "Ġ",
        "E"
      ],
      [
        "Ġ",
        "u"
      ],
      [
        "or",
        "k"
      ],
      [
        "it",
        "ion"
      ],
      [
        "Ġ",
        "O"
      ],
      [
        "itt",
        "le"
      ],
      [
        "g",
        "h"
      ],
      [
        "i",
        "a"
      ],
      [
        "Ġ",
        "he"
      ],
      [
        "ĠL",
        "ittle"
      ],
      [
        "Ġpl",
        "ay"
      ],
      [
        "o",
        "st"
      ],
      [
        "r",
        "a"
      ],
      [
        "s",
        "en"
      ],
      [
        "v",
        "e"
      ],
      [
        "ou",
        "nd"
      ],
      [
        "ĠI",
        "n"
      ],
      [
        "Ġ",
        "un"
      ],
      [
        "Ġp",
        "ro"
      ],
      [
        "as",
        "on"
      ],
      [
        "ĠR",
        "ock"
      ],
      [
        "t",
        "s"
      ],
      [
        "ar",
        "d"
      ],
      [
        "ark",
        "er"
      ],
      [
        "g",
        "e"
      ],
      [
        "um",
        "b"
      ],
      [
        "Ġte",
        "am"
      ],
      [
        "i",
        "al"
      ],
      [
        "Ġs",
        "h"
      ],
      [
        "ĠB",
        "arker"
      ],
      [
        "Ġe",
        "x"
      ],
      [
        "f",
        "or"
      ],
      [
        "u",
        "ild"
      ],
      [
        "Ġf",
        "ir"
      ],
      [
        "Ġn",
        "ot"
      ],
      [
        "sen",
        "al"
      ],
      [
        "Ġ",
        "y"
      ],
      [
        "it",
        "y"
      ],
      [
        "Ġthe",
        "m"
      ],
      [
        "ou",
        "ld"
      ],
      [
        "ou",
        "gh"
      ],
      [
        "ĠC",
        "ol"
      ],
      [
        "l",
        "ack"
      ],
      [
        "m",
        "ent"
      ],
      [
        "p",
        "p"
      ],
      [
        "t",
        "ed"
      ],
      [
        "or",
        "y"
      ],
      [
        "ic",
        "les"
      ],
      [
        "ĠB",
        "lu"
      ],
      [
        "Ġfir",
        "st"
      ],
      [
        "Ġ1",
        "8"
      ],
      [
        "Ġ20",
        "1"
      ],
      [
        "u",
        "e"
      ],
      [
        "Ġ",
        "her"
      ],
      [
        "Ġt",
        "r"
      ],
      [
        "Ġn",
        "e"
      ],
      [
        "Ġ19",
        "2"
      ],
      [
        "et",
        "s"
      ],
      [
        "ĠCh",
        "ron"
      ],
      [
        "uild",
        "ing"
      ],
      [
        "ĠChron",
        "icles"
      ],
      [
        "c",
        "or"
      ],
      [
        "Ġ",
        ":"
      ],
      [
        "Ġ",
        "v"
      ],
      [
        "Ġthe",
        "ir"
      ],
      [
        "ou",
        "t"
      ],
      [
        "ur",
        "ing"
      ],
      [
        "f",
        "f"
      ],
      [
        "o",
        "k"
      ],
      [
        "he",
        "d"
      ],
      [
        "el",
        "y"
      ],
      [
        "iv",
        "e"
      ],
      [
        "ĠJ",
        "ack"
      ],
      [
        "Ġ",
        "3"
      ],
      [
        "Ġa",
        "re"
      ],
      [
        "ic",
        "h"
      ],
      [
        "Ġh",
        "is"
      ],
      [
        "ĠCol",
        "umb"
      ],
      [
        "ĠBlu",
        "e"
      ],
      [
        "Ġ",
        "K"
      ],
      [
        "Ġw",
        "ork"
      ],
      [
        "Ġg",
        "o"
      ],
      [
        "ĠAr",
        "k"
      ],
      [
        "Ġit",
        "s"
      ],
      [
        "ĠJack",
        "ets"
      ],
      [
        "r",
        "u"
      ],
      [
        "Ġd",
        "es"
      ],
      [
        "il",
        "l"
      ],
      [
        "ĠB",
        "lack"
      ],
      [
        "ad",
        "e"
      ],
      [
        "ĠColumb",
        "us"
      ],
      [
        "0",
        "0"
      ],
      [
        "s",
        "o"
      ],
      [
        "u",
        "st"
      ],
      [
        "on",
        "g"
      ],
      [
        "Ġs",
        "er"
      ],
      [
        "ar",
        "ac"
      ],
      [
        "ic",
        "k"
      ],
      [
        "ig",
        "n"
      ],
      [
        "arac",
        "ter"
      ],
      [
        "i",
        "an"
      ],
      [
        "i",
        "ous"
      ],
      [
        "o",
        "v"
      ],
      [
        "Ġ",
        "4"
      ],
      [
        "am",
        "es"
      ],
      [
        "ac",
        "h"
      ],
      [
        "Ġse",
        "ason"
      ],
      [
        "ĠBlack",
        "ie"
      ],
      [
        "a",
        "g"
      ],
      [
        "o",
        "d"
      ],
      [
        "or",
        "t"
      ],
      [
        "em",
        "b"
      ],
      [
        "Ġal",
        "so"
      ],
      [
        "Ġcom",
        "p"
      ],
      [
        "s",
        "ion"
      ],
      [
        "in",
        "e"
      ],
      [
        "Ġc",
        "l"
      ],
      [
        "ĠF",
        "air"
      ],
      [
        "ĠArk",
        "ans"
      ],
      [
        "h",
        "i"
      ],
      [
        "w",
        "o"
      ],
      [
        "ing",
        "s"
      ],
      [
        "Ġp",
        "re"
      ],
      [
        "an",
        "t"
      ],
      [
        "ĠI",
        "I"
      ],
      [
        "im",
        "e"
      ],
      [
        "id",
        "e"
      ],
      [
        "Ġcon",
        "t"
      ],
      [
        "Ġy",
        "ear"
      ],
      [
        "ĠArkans",
        "as"
      ],
      [
        "Ġ",
        "U"
      ],
      [
        "Ġa",
        "g"
      ],
      [
        "ed",
        "er"
      ],
      [
        "Ġp",
        "er"
      ],
      [
        "Ġch",
        "aracter"
      ],
      [
        "l",
        "ay"
      ],
      [
        "o",
        "ok"
      ],
      [
        "p",
        "t"
      ],
      [
        "u",
        "re"
      ],
      [
        "Ġ",
        "le"
      ],
      [
        "on",
        "d"
      ],
      [
        "Ġw",
        "ould"
      ],
      [
        "al",
        "ly"
      ],
      [
        "Ġin",
        "t"
      ],
      [
        "ou",
        "r"
      ],
      [
        "Ġth",
        "is"
      ],
      [
        "Ġre",
        "p"
      ],
      [
        "ot",
        "h"
      ],
      [
        "om",
        "e"
      ],
      [
        "ec",
        "t"
      ],
      [
        "r",
        "ay"
      ],
      [
        "s",
        "e"
      ],
      [
        "u",
        "c"
      ],
      [
        "v",
        "el"
      ],
      [
        "Ġ",
        "k"
      ],
      [
        "Ġthe",
        "y"
      ],
      [
        "Ġw",
        "in"
      ],
      [
        "at",
        "er"
      ],
      [
        "an",
        "ce"
      ],
      [
        "ou",
        "n"
      ],
      [
        "Ġor",
        "d"
      ],
      [
        "Ġwh",
        "ich"
      ],
      [
        "i",
        "k"
      ],
      [
        "i",
        "z"
      ],
      [
        "u",
        "b"
      ],
      [
        "Ġ",
        "5"
      ],
      [
        "ĠT",
        "h"
      ],
      [
        "Ġg",
        "ames"
      ],
      [
        "ur",
        "n"
      ],
      [
        "ĠF",
        "low"
      ],
      [
        "ab",
        "le"
      ],
      [
        "r",
        "y"
      ],
      [
        "r",
        "es"
      ],
      [
        "Ġt",
        "wo"
      ],
      [
        "Ġp",
        "o"
      ],
      [
        "as",
        "t"
      ],
      [
        "as",
        "ed"
      ],
      [
        "Ġh",
        "as"
      ],
      [
        "ent",
        "s"
      ],
      [
        "Ġst",
        "art"
      ],
      [
        "us",
        "e"
      ],
      [
        "Ġsp",
        "ec"
      ],
      [
        "Ġu",
        "p"
      ],
      [
        "cor",
        "d"
      ],
      [
        ".",
        "@"
      ],
      [
        "f",
        "ter"
      ],
      [
        "i",
        "p"
      ],
      [
        "o",
        "ot"
      ],
      [
        "p",
        "er"
      ],
      [
        "r",
        "ough"
      ],
      [
        "ã",
        "ģ"
      ],
      [
        "Ġa",
        "b"
      ],
      [
        "it",
        "e"
      ],
      [
        "Ġb",
        "ut"
      ],
      [
        "as",
        "k"
      ],
      [
        "Ġof",
        "f"
      ],
      [
        "Ġd",
        "uring"
      ],
      [
        "ic",
        "t"
      ],
      [
        "ĠA",
        "l"
      ],
      [
        "Ġ@",
        ".@"
      ],
      [
        "om",
        "en"
      ],
      [
        "Ġbe",
        "en"
      ],
      [
        "ow",
        "er"
      ],
      [
        "Ġon",
        "e"
      ],
      [
        "ĠAr",
        "senal"
      ],
      [
        "Ġu",
        "nd"
      ],
      [
        "Ġgo",
        "al"
      ],
      [
        "vel",
        "op"
      ],
      [
        "ĠFlow",
        "er"
      ],
      [
        ",",
        "@"
      ],
      [
        "g",
        "an"
      ],
      [
        "n",
        "ing"
      ],
      [
        "t",
        "on"
      ],
      [
        "Ġa",
        "d"
      ],
      [
        "Ġf",
        "in"
      ],
      [
        "Ġin",
        "c"
      ],
      [
        "am",
        "b"
      ],
      [
        "ĠS",
        "he"
      ],
      [
        "Ġre",
        "m"
      ],
      [
        "Ġ@",
        ",@"
      ],
      [
        "Ġ19",
        "4"
      ],
      [
        "ol",
        "d"
      ],
      [
        "ation",
        "al"
      ],
      [
        "Ġwh",
        "o"
      ],
      [
        "ct",
        "ion"
      ],
      [
        "Ġ18",
        "6"
      ],
      [
        "Ġund",
        "er"
      ],
      [
        "a",
        "ve"
      ],
      [
        "l",
        "is"
      ],
      [
        "m",
        "s"
      ],
      [
        "t",
        "her"
      ],
      [
        "ã",
        "Ĥ"
      ],
      [
        "Ġt",
        "ime"
      ],
      [
        "Ġa",
        "c"
      ],
      [
        "or",
        "s"
      ],
      [
        "Ġs",
        "ec"
      ],
      [
        "Ġo",
        "ut"
      ],
      [
        "Ġo",
        "ver"
      ],
      [
        "Ġm",
        "ask"
      ],
      [
        "il",
        "it"
      ],
      [
        "Ġre",
        "cord"
      ],
      [
        "Ġar",
        "senal"
      ],
      [
        "Ġde",
        "velop"
      ],
      [
        "ĠFair",
        "ies"
      ],
      [
        "Ġint",
        "o"
      ],
      [
        "H",
        "L"
      ],
      [
        "a",
        "v"
      ],
      [
        "f",
        "t"
      ],
      [
        "in",
        "t"
      ],
      [
        "Ġc",
        "ar"
      ],
      [
        "re",
        "e"
      ],
      [
        "Ġb",
        "uilding"
      ],
      [
        "is",
        "e"
      ],
      [
        "ac",
        "t"
      ],
      [
        "ro",
        "y"
      ],
      [
        "ĠR",
        "e"
      ],
      [
        "ap",
        "t"
      ],
      [
        "ĠG",
        "amb"
      ],
      [
        "Ġar",
        "t"
      ],
      [
        "Ġdes",
        "ign"
      ],
      [
        "i",
        "el"
      ],
      [
        "o",
        "y"
      ],
      [
        "p",
        "r"
      ],
      [
        "in",
        "d"
      ],
      [
        "on",
        "s"
      ],
      [
        "Ġw",
        "e"
      ],
      [
        "Ġw",
        "he"
      ],
      [
        "en",
        "s"
      ],
      [
        "Ġp",
        "ub"
      ],
      [
        "is",
        "sion"
      ],
      [
        "Ġm",
        "an"
      ],
      [
        "ot",
        "t"
      ],
      [
        "Ġn",
        "o"
      ],
      [
        "Ġ19",
        "1"
      ],
      [
        "ĠI",
        "t"
      ],
      [
        "ĠH",
        "e"
      ],
      [
        "ig",
        "h"
      ],
      [
        "ak",
        "e"
      ],
      [
        "Ġcom",
        "m"
      ],
      [
        "ard",
        "s"
      ],
      [
        "Ġpre",
        "v"
      ],
      [
        "ĠGamb",
        "ia"
      ],
      [
        "i",
        "b"
      ],
      [
        "i",
        "re"
      ],
      [
        "l",
        "ed"
      ],
      [
        "r",
        "ed"
      ],
      [
        "Ġa",
        "m"
      ],
      [
        "or",
        "e"
      ],
      [
        "Ġw",
        "omen"
      ],
      [
        "en",
        "ce"
      ],
      [
        "Ġo",
        "ther"
      ],
      [
        "at",
        "ing"
      ],
      [
        "ar",
        "ter"
      ],
      [
        "Ġp",
        "os"
      ],
      [
        "Ġp",
        "art"
      ],
      [
        "ro",
        "op"
      ],
      [
        "ĠS",
        "e"
      ],
      [
        "Ġth",
        "an"
      ],
      [
        "Ġth",
        "rough"
      ],
      [
        "ĠB",
        "uilding"
      ],
      [
        "oc",
        "i"
      ],
      [
        "ĠN",
        "HL"
      ],
      [
        "ation",
        "s"
      ],
      [
        "Ġas",
        "s"
      ],
      [
        "Ġcon",
        "s"
      ],
      [
        "Ġsu",
        "ch"
      ],
      [
        "Ġag",
        "ain"
      ],
      [
        "Ġmask",
        "ray"
      ],
      [
        "a",
        "il"
      ],
      [
        "b",
        "all"
      ],
      [
        "d",
        "on"
      ],
      [
        "i",
        "le"
      ],
      [
        "r",
        "an"
      ],
      [
        "Ġ",
        "ro"
      ],
      [
        "er",
        "ed"
      ],
      [
        "Ġs",
        "m"
      ],
      [
        "it",
        "ed"
      ],
      [
        "Ġf",
        "our"
      ],
      [
        "at",
        "t"
      ],
      [
        "as",
        "s"
      ],
      [
        "Ġre",
        "t"
      ],
      [
        "Ġre",
        "le"
      ],
      [
        "iv",
        "ely"
      ],
      [
        "Ġon",
        "ly"
      ],
      [
        "Ġat",
        "t"
      ],
      [
        "Ġal",
        "l"
      ],
      [
        "ver",
        "n"
      ],
      [
        "low",
        "ing"
      ],
      [
        "Ġ201",
        "1"
      ],
      [
        "Ġne",
        "w"
      ],
      [
        "Ġser",
        "ies"
      ],
      [
        "emb",
        "er"
      ],
      [
        "Ġcont",
        "in"
      ],
      [
        "ĠU",
        "n"
      ],
      [
        "oot",
        "ball"
      ],
      [
        "Ġprev",
        "ious"
      ],
      [
        "f",
        "er"
      ],
      [
        "i",
        "ed"
      ],
      [
        "p",
        "h"
      ],
      [
        "r",
        "en"
      ],
      [
        "w",
        "e"
      ],
      [
        "Ġ",
        "6"
      ],
      [
        "Ġ",
        "7"
      ],
      [
        "Ġ",
        "j"
      ],
      [
        "Ġ",
        "us"
      ],
      [
        "on",
        "e"
      ],
      [
        "it",
        "s"
      ],
      [
        "re",
        "ak"
      ],
      [
        "as",
        "h"
      ],
      [
        "Ġm",
        "ade"
      ],
      [
        "Ġd",
        "ra"
      ],
      [
        "ic",
        "e"
      ],
      [
        "ĠT",
        "ower"
      ],
      [
        "el",
        "l"
      ],
      [
        "Ġl",
        "os"
      ],
      [
        "Ġbe",
        "ing"
      ],
      [
        "Ġ19",
        "3"
      ],
      [
        "Ġe",
        "v"
      ],
      [
        "iv",
        "ed"
      ],
      [
        "lu",
        "d"
      ],
      [
        "ild",
        "ren"
      ],
      [
        "ul",
        "ar"
      ],
      [
        "Ġtr",
        "ade"
      ],
      [
        "Ġab",
        "out"
      ],
      [
        "Ġinc",
        "lud"
      ],
      [
        "roop",
        "s"
      ],
      [
        "a",
        "w"
      ],
      [
        "o",
        "g"
      ],
      [
        "r",
        "al"
      ],
      [
        "Ġ",
        "qu"
      ],
      [
        "Ġt",
        "roops"
      ],
      [
        "Ġa",
        "pp"
      ],
      [
        "en",
        "c"
      ],
      [
        "Ġf",
        "l"
      ],
      [
        "Ġc",
        "an"
      ],
      [
        "as",
        "e"
      ],
      [
        "Ġm",
        "ost"
      ],
      [
        "Ġm",
        "ilit"
      ],
      [
        "ĠC",
        "on"
      ],
      [
        "ac",
        "e"
      ],
      [
        "Ġh",
        "ave"
      ],
      [
        "Ġth",
        "ree"
      ],
      [
        "st",
        "r"
      ],
      [
        "Ġre",
        "ce"
      ],
      [
        "ĠF",
        "e"
      ],
      [
        "ol",
        "lowing"
      ],
      [
        "ĠL",
        "e"
      ],
      [
        "Ġr",
        "es"
      ],
      [
        "ĠII",
        "I"
      ],
      [
        "ĠAl",
        "l"
      ],
      [
        "Ġrem",
        "ain"
      ],
      [
        "Ġsec",
        "ond"
      ],
      [
        "Ġagain",
        "st"
      ],
      [
        "att",
        "le"
      ],
      [
        "a",
        "u"
      ],
      [
        "o",
        "h"
      ],
      [
        "r",
        "ic"
      ],
      [
        "r",
        "ist"
      ],
      [
        "u",
        "ed"
      ],
      [
        "x",
        "t"
      ],
      [
        "Ġa",
        "fter"
      ],
      [
        "Ġs",
        "c"
      ],
      [
        "Ġw",
        "or"
      ],
      [
        "Ġf",
        "ound"
      ],
      [
        "Ġf",
        "ran"
      ],
      [
        "Ġf",
        "ootball"
      ],
      [
        "Ġc",
        "ol"
      ],
      [
        "is",
        "ter"
      ],
      [
        "Ġin",
        "ter"
      ],
      [
        "Ġm",
        "ission"
      ],
      [
        "Ġd",
        "is"
      ],
      [
        "ĠC",
        "roy"
      ],
      [
        "ĠA",
        "n"
      ],
      [
        "ĠB",
        "ook"
      ],
      [
        "ur",
        "ch"
      ],
      [
        "Ġbe",
        "gan"
      ],
      [
        "Ġst",
        "ory"
      ],
      [
        "Ġe",
        "ar"
      ],
      [
        "ĠN",
        "ash"
      ],
      [
        "ĠW",
        "ar"
      ],
      [
        "ch",
        "ise"
      ],
      [
        "ĠCh",
        "rist"
      ],
      [
        "ig",
        "in"
      ],
      [
        "Ġor",
        "igin"
      ],
      [
        "ĠE",
        "d"
      ],
      [
        "use",
        "um"
      ],
      [
        "Ġspec",
        "ies"
      ],
      [
        "Ġdevelop",
        "ment"
      ],
      [
        "Ġwe",
        "ap"
      ],
      [
        "Ġsm",
        "all"
      ],
      [
        "Ġfran",
        "chise"
      ],
      [
        "ĠCroy",
        "don"
      ],
      [
        "m",
        "er"
      ],
      [
        "n",
        "e"
      ],
      [
        "Ġ",
        "en"
      ],
      [
        "Ġ",
        "ri"
      ],
      [
        "Ġ",
        "im"
      ],
      [
        "Ġs",
        "he"
      ],
      [
        "en",
        "er"
      ],
      [
        "al",
        "es"
      ],
      [
        "Ġm",
        "ain"
      ],
      [
        "Ġd",
        "ue"
      ],
      [
        "Ġ1",
        "2"
      ],
      [
        "Ġth",
        "ir"
      ],
      [
        "ay",
        "s"
      ],
      [
        "Ġl",
        "ater"
      ],
      [
        "Ġbe",
        "c"
      ],
      [
        "Ġbe",
        "t"
      ],
      [
        "Ġst",
        "ated"
      ],
      [
        "ow",
        "n"
      ],
      [
        "ĠN",
        "am"
      ],
      [
        "ĠG",
        "all"
      ],
      [
        "lu",
        "b"
      ],
      [
        "ist",
        "ory"
      ],
      [
        "ab",
        "or"
      ],
      [
        "Ġex",
        "p"
      ],
      [
        "Ġthem",
        "e"
      ],
      [
        "Ġser",
        "v"
      ],
      [
        "ik",
        "e"
      ],
      [
        "lis",
        "hed"
      ],
      [
        "Ġret",
        "urn"
      ],
      [
        "Ġthir",
        "d"
      ],
      [
        "a",
        "j"
      ],
      [
        "a",
        "ge"
      ],
      [
        "b",
        "ru"
      ],
      [
        "g",
        "es"
      ],
      [
        "i",
        "x"
      ],
      [
        "m",
        "ed"
      ],
      [
        "n",
        "ance"
      ],
      [
        "p",
        "lay"
      ],
      [
        "s",
        "on"
      ],
      [
        "t",
        "y"
      ],
      [
        "w",
        "n"
      ],
      [
        "ã",
        "ĥ"
      ],
      [
        "Ġ",
        "end"
      ],
      [
        "Ġ",
        "00"
      ],
      [
        "or",
        "n"
      ],
      [
        "Ġs",
        "k"
      ],
      [
        "Ġs",
        "ur"
      ],
      [
        "Ġs",
        "old"
      ],
      [
        "Ġs",
        "ister"
      ],
      [
        "Ġf",
        "e"
      ],
      [
        "Ġp",
        "ain"
      ],
      [
        "Ġp",
        "ost"
      ],
      [
        "Ġp",
        "ick"
      ],
      [
        "Ġc",
        "o"
      ],
      [
        "Ġc",
        "ould"
      ],
      [
        "Ġb",
        "oth"
      ],
      [
        "is",
        "h"
      ],
      [
        "is",
        "ion"
      ],
      [
        "an",
        "c"
      ],
      [
        "Ġm",
        "e"
      ],
      [
        "Ġm",
        "ore"
      ],
      [
        "ĠA",
        "s"
      ],
      [
        "il",
        "y"
      ],
      [
        "el",
        "ess"
      ],
      [
        "ent",
        "er"
      ],
      [
        "ĠM",
        "ac"
      ],
      [
        "et",
        "y"
      ],
      [
        "Ġe",
        "le"
      ],
      [
        "un",
        "ition"
      ],
      [
        "ap",
        "h"
      ],
      [
        "ĠW",
        "or"
      ],
      [
        "ĠJ",
        "oh"
      ],
      [
        "Ġwh",
        "ile"
      ],
      [
        "Ġ20",
        "0"
      ],
      [
        "end",
        "er"
      ],
      [
        "ie",
        "w"
      ],
      [
        "for",
        "d"
      ],
      [
        "for",
        "e"
      ],
      [
        "Ġ201",
        "2"
      ],
      [
        "Ġwork",
        "s"
      ],
      [
        "Ġyear",
        "s"
      ],
      [
        "Ġcharacter",
        "s"
      ],
      [
        "Ġpo",
        "in"
      ],
      [
        "iel",
        "d"
      ],
      [
        "Ġwhe",
        "n"
      ],
      [
        "we",
        "en"
      ],
      [
        "Ġmilit",
        "ary"
      ],
      [
        "ĠFe",
        "bru"
      ],
      [
        "Ġbet",
        "ween"
      ],
      [
        "ĠNam",
        "eless"
      ],
      [
        "Ġ00",
        "0"
      ],
      [
        "ĠFebru",
        "ary"
      ],
      [
        "c",
        "us"
      ],
      [
        "g",
        "r"
      ],
      [
        "i",
        "ers"
      ],
      [
        "l",
        "ic"
      ],
      [
        "o",
        "ve"
      ],
      [
        "o",
        "vern"
      ],
      [
        "p",
        "os"
      ],
      [
        "r",
        "it"
      ],
      [
        "s",
        "el"
      ],
      [
        "y",
        "m"
      ],
      [
        "Ġ",
        "-"
      ],
      [
        "Ġ",
        "9"
      ],
      [
        "Ġ",
        "Y"
      ],
      [
        "Ġ",
        "il"
      ],
      [
        "he",
        "s"
      ],
      [
        "Ġthe",
        "re"
      ],
      [
        "Ġs",
        "ame"
      ],
      [
        "Ġw",
        "ar"
      ],
      [
        "Ġf",
        "ollowing"
      ],
      [
        "at",
        "es"
      ],
      [
        "at",
        "ch"
      ],
      [
        "re",
        "w"
      ],
      [
        "is",
        "ed"
      ],
      [
        "an",
        "ford"
      ],
      [
        "ac",
        "ed"
      ],
      [
        "ĠS",
        "anford"
      ],
      [
        "Ġre",
        "c"
      ],
      [
        "ot",
        "her"
      ],
      [
        "Ġn",
        "ational"
      ],
      [
        "ter",
        "n"
      ],
      [
        "Ġst",
        "reak"
      ],
      [
        "iv",
        "er"
      ],
      [
        "ĠN",
        "e"
      ],
      [
        "ĠG",
        "re"
      ],
      [
        "ĠG",
        "overn"
      ],
      [
        "ĠP",
        "lay"
      ],
      [
        "ĠD",
        "uring"
      ],
      [
        "Ġan",
        "n"
      ],
      [
        "Ġan",
        "y"
      ],
      [
        "ĠH",
        "ow"
      ],
      [
        "lu",
        "str"
      ],
      [
        "th",
        "ur"
      ],
      [
        "Ġpl",
        "ain"
      ],
      [
        "Ġch",
        "an"
      ],
      [
        "Ġal",
        "ong"
      ],
      [
        "Ġar",
        "ms"
      ],
      [
        "end",
        "ed"
      ],
      [
        "Ġplay",
        "ed"
      ],
      [
        "Ġpro",
        "d"
      ],
      [
        "ment",
        "s"
      ],
      [
        "oun",
        "t"
      ],
      [
        "iz",
        "ed"
      ],
      [
        "ĠTh",
        "is"
      ],
      [
        "Ġad",
        "d"
      ],
      [
        "igh",
        "t"
      ],
      [
        "oci",
        "ety"
      ],
      [
        "Ġdra",
        "ft"
      ],
      [
        "Ġrece",
        "ived"
      ],
      [
        "Ġorigin",
        "al"
      ],
      [
        "ener",
        "al"
      ],
      [
        "Ġil",
        "lustr"
      ],
      [
        "1",
        "8"
      ],
      [
        "F",
        "A"
      ],
      [
        "I",
        "FA"
      ],
      [
        "k",
        "i"
      ],
      [
        "k",
        "s"
      ],
      [
        "l",
        "ock"
      ],
      [
        "m",
        "y"
      ],
      [
        "p",
        "ed"
      ],
      [
        "p",
        "en"
      ],
      [
        "s",
        "ide"
      ],
      [
        "Ġ",
        "0"
      ],
      [
        "Ġs",
        "ent"
      ],
      [
        "Ġs",
        "ome"
      ],
      [
        "al",
        "s"
      ],
      [
        "ar",
        "g"
      ],
      [
        "Ġp",
        "ers"
      ],
      [
        "Ġin",
        "v"
      ],
      [
        "Ġin",
        "st"
      ],
      [
        "Ġm",
        "us"
      ],
      [
        "Ġm",
        "ov"
      ],
      [
        "Ġd",
        "ist"
      ],
      [
        "ĠC",
        "al"
      ],
      [
        "ĠC",
        "arter"
      ],
      [
        "ĠS",
        "ociety"
      ],
      [
        "Ġh",
        "im"
      ],
      [
        "Ġre",
        "l"
      ],
      [
        "ad",
        "ing"
      ],
      [
        "ĠM",
        "useum"
      ],
      [
        "Ġbe",
        "fore"
      ],
      [
        "Ġst",
        "ate"
      ],
      [
        "Ġ19",
        "5"
      ],
      [
        "ĠF",
        "IFA"
      ],
      [
        "ri",
        "b"
      ],
      [
        "ap",
        "s"
      ],
      [
        "ap",
        "an"
      ],
      [
        "ain",
        "ed"
      ],
      [
        "ĠJ",
        "apan"
      ],
      [
        "Ġgame",
        "play"
      ],
      [
        "Ġar",
        "ound"
      ],
      [
        "ak",
        "ing"
      ],
      [
        "Ġr",
        "um"
      ],
      [
        "Ġr",
        "ound"
      ],
      [
        "Ġsu",
        "b"
      ],
      [
        "Ġplay",
        "er"
      ],
      [
        "Ġplay",
        "ers"
      ],
      [
        "Ġsh",
        "ot"
      ],
      [
        "Ġ192",
        "3"
      ],
      [
        "Ġcomp",
        "et"
      ],
      [
        "eder",
        "al"
      ],
      [
        "Ġord",
        "er"
      ],
      [
        "Ġoff",
        "ic"
      ],
      [
        "Ġcomm",
        "and"
      ],
      [
        "Ġrele",
        "ased"
      ],
      [
        "Ġcontin",
        "ued"
      ],
      [
        "Ġus",
        "ed"
      ],
      [
        "Ġear",
        "ly"
      ],
      [
        "aj",
        "or"
      ],
      [
        "Ġpoin",
        "ts"
      ],
      [
        "A",
        "r"
      ],
      [
        "S",
        "t"
      ],
      [
        "a",
        "ff"
      ],
      [
        "c",
        "hed"
      ],
      [
        "e",
        "ver"
      ],
      [
        "f",
        "eder"
      ],
      [
        "f",
        "ield"
      ],
      [
        "g",
        "ed"
      ],
      [
        "m",
        "p"
      ],
      [
        "o",
        "b"
      ],
      [
        "r",
        "itt"
      ],
      [
        "r",
        "eder"
      ],
      [
        "t",
        "ic"
      ],
      [
        "t",
        "il"
      ],
      [
        "u",
        "nd"
      ],
      [
        "u",
        "il"
      ],
      [
        "v",
        "en"
      ],
      [
        "Ġ",
        "ed"
      ],
      [
        "Ġ",
        "est"
      ],
      [
        "Ġa",
        "ct"
      ],
      [
        "on",
        "th"
      ],
      [
        "Ġs",
        "cor"
      ],
      [
        "Ġw",
        "ritt"
      ],
      [
        "es",
        "e"
      ],
      [
        "it",
        "ies"
      ],
      [
        "Ġf",
        "am"
      ],
      [
        "Ġo",
        "pen"
      ],
      [
        "Ġb",
        "est"
      ],
      [
        "Ġb",
        "ook"
      ],
      [
        "Ġb",
        "attle"
      ],
      [
        "is",
        "s"
      ],
      [
        "Ġm",
        "onth"
      ],
      [
        "Ġd",
        "if"
      ],
      [
        "ou",
        "th"
      ],
      [
        "ro",
        "p"
      ],
      [
        "ĠA",
        "fter"
      ],
      [
        "ĠS",
        "h"
      ],
      [
        "ĠS",
        "en"
      ],
      [
        "Ġh",
        "ous"
      ],
      [
        "Ġh",
        "ome"
      ],
      [
        "ir",
        "ed"
      ],
      [
        "Ġn",
        "umb"
      ],
      [
        "ur",
        "t"
      ],
      [
        "ur",
        "ed"
      ],
      [
        "ĠM",
        "ay"
      ],
      [
        "Ġ19",
        "8"
      ],
      [
        "ĠF",
        "reder"
      ],
      [
        "ri",
        "end"
      ],
      [
        "ec",
        "ted"
      ],
      [
        "et",
        "h"
      ],
      [
        "ĠN",
        "ov"
      ],
      [
        "ĠG",
        "eneral"
      ],
      [
        "ut",
        "h"
      ],
      [
        "ĠD",
        "e"
      ],
      [
        "Ġch",
        "ildren"
      ],
      [
        "Ġde",
        "f"
      ],
      [
        "Ġis",
        "s"
      ],
      [
        "ct",
        "ed"
      ],
      [
        "Ġsu",
        "ff"
      ],
      [
        "if",
        "ic"
      ],
      [
        "ess",
        "ion"
      ],
      [
        "ĠE",
        "n"
      ],
      [
        "Ġun",
        "til"
      ],
      [
        "Ġne",
        "ed"
      ],
      [
        "Ġ192",
        "0"
      ],
      [
        "Ġcl",
        "ock"
      ],
      [
        "Ġord",
        "nance"
      ],
      [
        "res",
        "ent"
      ],
      [
        "ãģ",
        "®"
      ],
      [
        "Ġcar",
        "e"
      ],
      [
        "Ġpub",
        "lic"
      ],
      [
        "ĠUn",
        "ited"
      ],
      [
        "Ġqu",
        "al"
      ],
      [
        "ĠCon",
        "feder"
      ],
      [
        "Ġmission",
        "s"
      ],
      [
        "ĠChrist",
        "ian"
      ],
      [
        "ĠEd",
        "m"
      ],
      [
        "Ġweap",
        "ons"
      ],
      [
        "Ġim",
        "p"
      ],
      [
        "Ġpain",
        "t"
      ],
      [
        "ĠMac",
        "Ar"
      ],
      [
        "ĠWor",
        "ld"
      ],
      [
        "ĠJoh",
        "n"
      ],
      [
        "cus",
        "sion"
      ],
      [
        "ĠPlay",
        "St"
      ],
      [
        "Ġprod",
        "uc"
      ],
      [
        "Ġrum",
        "ors"
      ],
      [
        "uil",
        "t"
      ],
      [
        "Ġwritt",
        "en"
      ],
      [
        "ĠFreder",
        "ick"
      ],
      [
        "ĠNov",
        "ember"
      ],
      [
        "ĠMacAr",
        "thur"
      ],
      [
        "ĠPlaySt",
        "ation"
      ],
      [
        "2",
        "2"
      ],
      [
        "c",
        "c"
      ],
      [
        "c",
        "ed"
      ],
      [
        "g",
        "a"
      ],
      [
        "i",
        "er"
      ],
      [
        "l",
        "ine"
      ],
      [
        "m",
        "an"
      ],
      [
        "m",
        "unition"
      ],
      [
        "p",
        "ite"
      ],
      [
        "r",
        "ing"
      ],
      [
        "r",
        "ound"
      ],
      [
        "u",
        "ary"
      ],
      [
        "Ã",
        "Ĩ"
      ],
      [
        "Ġ",
        "8"
      ],
      [
        "Ġ",
        "ÃĨ"
      ],
      [
        "he",
        "tic"
      ],
      [
        "in",
        "ce"
      ],
      [
        "Ġthe",
        "n"
      ],
      [
        "er",
        "v"
      ],
      [
        "or",
        "oth"
      ],
      [
        "Ġs",
        "ign"
      ],
      [
        "Ġs",
        "ix"
      ],
      [
        "nd",
        "rew"
      ],
      [
        "at",
        "her"
      ],
      [
        "at",
        "ely"
      ],
      [
        "ar",
        "ge"
      ],
      [
        "Ġp",
        "r"
      ],
      [
        "Ġp",
        "ri"
      ],
      [
        "Ġp",
        "op"
      ],
      [
        "Ġc",
        "al"
      ],
      [
        "Ġc",
        "re"
      ],
      [
        "Ġb",
        "ack"
      ],
      [
        "Ġb",
        "uilt"
      ],
      [
        "Ġin",
        "d"
      ],
      [
        "an",
        "uary"
      ],
      [
        "Ġto",
        "w"
      ],
      [
        "Ġm",
        "emb"
      ],
      [
        "Ġm",
        "ove"
      ],
      [
        "Ġd",
        "ec"
      ],
      [
        "Ġd",
        "em"
      ],
      [
        "ion",
        "s"
      ],
      [
        "am",
        "p"
      ],
      [
        "ĠT",
        "ott"
      ],
      [
        "ĠC",
        "apt"
      ],
      [
        "ĠC",
        "lub"
      ],
      [
        "le",
        "t"
      ],
      [
        "Ġ1",
        "0"
      ],
      [
        "ro",
        "v"
      ],
      [
        "ĠA",
        "ndrew"
      ],
      [
        "Ġh",
        "and"
      ],
      [
        "Ġh",
        "istory"
      ],
      [
        "Ġg",
        "r"
      ],
      [
        "st",
        "hetic"
      ],
      [
        "ir",
        "l"
      ],
      [
        "Ġl",
        "oc"
      ],
      [
        "Ġl",
        "ast"
      ],
      [
        "ĠM",
        "ary"
      ],
      [
        "ĠM",
        "ason"
      ],
      [
        "Ġst",
        "ru"
      ],
      [
        "Ġst",
        "aff"
      ],
      [
        "ĠR",
        "iver"
      ],
      [
        "Ġ19",
        "6"
      ],
      [
        "Ġ19",
        "9"
      ],
      [
        "ĠI",
        "m"
      ],
      [
        "ĠI",
        "ts"
      ],
      [
        "Ġ2",
        "3"
      ],
      [
        "im",
        "es"
      ],
      [
        "un",
        "s"
      ],
      [
        "un",
        "ning"
      ],
      [
        "ĠW",
        "ith"
      ],
      [
        "ĠW",
        "ork"
      ],
      [
        "ĠW",
        "hi"
      ],
      [
        "ĠD",
        "ar"
      ],
      [
        "ĠD",
        "oroth"
      ],
      [
        "ĠD",
        "unning"
      ],
      [
        "em",
        "ent"
      ],
      [
        "ĠJ",
        "anuary"
      ],
      [
        "id",
        "ed"
      ],
      [
        "ist",
        "s"
      ],
      [
        "ĠAr",
        "t"
      ],
      [
        "ĠAr",
        "my"
      ],
      [
        "os",
        "e"
      ],
      [
        "Ġde",
        "p"
      ],
      [
        "Ġr",
        "an"
      ],
      [
        "Ġse",
        "ver"
      ],
      [
        "qu",
        "ad"
      ],
      [
        "ĠSt",
        "ate"
      ],
      [
        "ĠSt",
        "ates"
      ],
      [
        "ul",
        "t"
      ],
      [
        "ul",
        "ation"
      ],
      [
        "Ġsu",
        "pp"
      ],
      [
        "Ġhe",
        "ad"
      ],
      [
        "Ġex",
        "t"
      ],
      [
        "Ġy",
        "oun"
      ],
      [
        "Ġthem",
        "ed"
      ],
      [
        "Ġv",
        "ar"
      ],
      [
        "ĠK",
        "ings"
      ],
      [
        "ach",
        "ing"
      ],
      [
        "Ġcl",
        "ass"
      ],
      [
        "ĠFair",
        "y"
      ],
      [
        "Ġrep",
        "air"
      ],
      [
        "Ġ186",
        "2"
      ],
      [
        "Ġpub",
        "lished"
      ],
      [
        "Ġam",
        "munition"
      ],
      [
        "Ġj",
        "ust"
      ],
      [
        "Ġlos",
        "ing"
      ],
      [
        "Ġinclud",
        "ing"
      ],
      [
        "aw",
        "a"
      ],
      [
        "Ġfl",
        "int"
      ],
      [
        "Ġres",
        "p"
      ],
      [
        "Ġdis",
        "c"
      ],
      [
        "ĠGall",
        "ian"
      ],
      [
        "Ġsold",
        "iers"
      ],
      [
        "Ġele",
        "ments"
      ],
      [
        "ĠY",
        "ork"
      ],
      [
        "ĠHow",
        "son"
      ],
      [
        "Ġpers",
        "on"
      ],
      [
        "Ġfam",
        "ily"
      ],
      [
        "Ġproduc",
        "ed"
      ],
      [
        "ĠÃĨ",
        "sthetic"
      ],
      [
        "Ġmemb",
        "ers"
      ],
      [
        "ĠTott",
        "en"
      ],
      [
        "ĠWhi",
        "le"
      ],
      [
        "ĠDoroth",
        "y"
      ],
      [
        "ĠDunning",
        "ton"
      ],
      [
        "Ġyoun",
        "g"
      ],
      [
        "a",
        "h"
      ],
      [
        "a",
        "z"
      ],
      [
        "f",
        "act"
      ],
      [
        "f",
        "ric"
      ],
      [
        "g",
        "g"
      ],
      [
        "g",
        "in"
      ],
      [
        "g",
        "ust"
      ],
      [
        "h",
        "ind"
      ],
      [
        "j",
        "ect"
      ],
      [
        "l",
        "ing"
      ],
      [
        "m",
        "in"
      ],
      [
        "m",
        "al"
      ],
      [
        "n",
        "er"
      ],
      [
        "o",
        "ff"
      ],
      [
        "p",
        "or"
      ],
      [
        "p",
        "ted"
      ],
      [
        "t",
        "ender"
      ],
      [
        "u",
        "d"
      ],
      [
        "u",
        "p"
      ],
      [
        "u",
        "gust"
      ],
      [
        "v",
        "ail"
      ],
      [
        "w",
        "ard"
      ],
      [
        "Ġ",
        "el"
      ],
      [
        "Ġa",
        "uth"
      ],
      [
        "Ġa",
        "vail"
      ],
      [
        "er",
        "y"
      ],
      [
        "or",
        "ies"
      ],
      [
        "or",
        "th"
      ],
      [
        "Ġs",
        "o"
      ],
      [
        "Ġs",
        "y"
      ],
      [
        "Ġs",
        "im"
      ],
      [
        "it",
        "ch"
      ],
      [
        "Ġf",
        "el"
      ],
      [
        "Ġf",
        "air"
      ],
      [
        "Ġf",
        "ive"
      ],
      [
        "Ġf",
        "riend"
      ],
      [
        "Ġo",
        "wn"
      ],
      [
        "at",
        "ur"
      ],
      [
        "at",
        "ure"
      ],
      [
        "ar",
        "r"
      ],
      [
        "Ġc",
        "m"
      ],
      [
        "Ġc",
        "ame"
      ],
      [
        "Ġc",
        "all"
      ],
      [
        "Ġc",
        "rit"
      ],
      [
        "Ġb",
        "lack"
      ],
      [
        "is",
        "hed"
      ],
      [
        "Ġin",
        "f"
      ],
      [
        "Ġd",
        "o"
      ],
      [
        "Ġd",
        "id"
      ],
      [
        "Ġd",
        "est"
      ],
      [
        "Ġd",
        "ire"
      ],
      [
        "Ġd",
        "own"
      ],
      [
        "am",
        "ed"
      ],
      [
        "ic",
        "al"
      ],
      [
        "ĠC",
        "om"
      ],
      [
        "Ġ1",
        "1"
      ],
      [
        "Ġ1",
        "3"
      ],
      [
        "ac",
        "hed"
      ],
      [
        "ro",
        "s"
      ],
      [
        "ro",
        "w"
      ],
      [
        "ĠA",
        "ust"
      ],
      [
        "ĠA",
        "fric"
      ],
      [
        "ĠA",
        "ugust"
      ],
      [
        "il",
        "ity"
      ],
      [
        "ĠS",
        "c"
      ],
      [
        "ĠS",
        "um"
      ],
      [
        "ĠS",
        "pr"
      ],
      [
        "Ġh",
        "ow"
      ],
      [
        "Ġg",
        "u"
      ],
      [
        "Ġg",
        "re"
      ],
      [
        "el",
        "s"
      ],
      [
        "Ġre",
        "g"
      ],
      [
        "Ġre",
        "qu"
      ],
      [
        "ent",
        "ion"
      ],
      [
        "ent",
        "ial"
      ],
      [
        "ent",
        "ral"
      ],
      [
        "ur",
        "y"
      ],
      [
        "Ġl",
        "ow"
      ],
      [
        "Ġl",
        "ist"
      ],
      [
        "Ġl",
        "if"
      ],
      [
        "Ġl",
        "ess"
      ],
      [
        "Ġl",
        "ike"
      ],
      [
        "Ġbe",
        "hind"
      ],
      [
        "ri",
        "d"
      ],
      [
        "ri",
        "pt"
      ],
      [
        "et",
        "t"
      ],
      [
        "Ġe",
        "ach"
      ],
      [
        "Ġ2",
        "4"
      ],
      [
        "Ġon",
        "ce"
      ],
      [
        "un",
        "e"
      ],
      [
        "ĠP",
        "ict"
      ],
      [
        "ut",
        "ion"
      ],
      [
        "Ġan",
        "ime"
      ],
      [
        "ĠCh",
        "ildren"
      ],
      [
        "os",
        "ed"
      ],
      [
        "ak",
        "es"
      ],
      [
        "ĠâĢ",
        "Ļ"
      ],
      [
        "qu",
        "e"
      ],
      [
        "ĠE",
        "x"
      ],
      [
        "ĠO",
        "n"
      ],
      [
        "Ġhe",
        "l"
      ],
      [
        "Ġun",
        "it"
      ],
      [
        "Ġun",
        "its"
      ],
      [
        "for",
        "m"
      ],
      [
        "Ġ201",
        "0"
      ],
      [
        "Ġdes",
        "pite"
      ],
      [
        "ect",
        "or"
      ],
      [
        "uc",
        "k"
      ],
      [
        "Ġk",
        "e"
      ],
      [
        "Ġk",
        "n"
      ],
      [
        "Ġgoal",
        "tender"
      ],
      [
        "Ġac",
        "qu"
      ],
      [
        "ĠRe",
        "g"
      ],
      [
        "Ġdesign",
        "ed"
      ],
      [
        "Ġwhe",
        "re"
      ],
      [
        "Ġpos",
        "it"
      ],
      [
        "Ġpart",
        "ic"
      ],
      [
        "Ġwor",
        "st"
      ],
      [
        "ĠWar",
        "ne"
      ],
      [
        "Ġri",
        "f"
      ],
      [
        "ĠGovern",
        "or"
      ],
      [
        "Ġadd",
        "ition"
      ],
      [
        "Ġhous",
        "e"
      ],
      [
        "Ġnumb",
        "er"
      ],
      [
        "Ġqual",
        "if"
      ],
      [
        "ĠConfeder",
        "ate"
      ],
      [
        "Ġimp",
        "rov"
      ],
      [
        "Ġpop",
        "ular"
      ],
      [
        "ĠCapt",
        "ain"
      ],
      [
        "Ġsever",
        "al"
      ],
      [
        "Ġflint",
        "lock"
      ],
      [
        "Ġauth",
        "or"
      ],
      [
        "Ġcrit",
        "ic"
      ],
      [
        "ĠAust",
        "ral"
      ],
      [
        "ĠSpr",
        "ing"
      ],
      [
        "c",
        "ock"
      ],
      [
        "f",
        "ul"
      ],
      [
        "g",
        "l"
      ],
      [
        "g",
        "art"
      ],
      [
        "h",
        "o"
      ],
      [
        "i",
        "od"
      ],
      [
        "l",
        "abor"
      ],
      [
        "o",
        "ol"
      ],
      [
        "u",
        "ch"
      ],
      [
        "u",
        "fact"
      ],
      [
        "v",
        "iew"
      ],
      [
        "x",
        "im"
      ],
      [
        "y",
        "ing"
      ],
      [
        "y",
        "ch"
      ],
      [
        "Ġ",
        "&"
      ],
      [
        "Ġ",
        "Q"
      ],
      [
        "Ġ",
        "ent"
      ],
      [
        "Ġt",
        "ra"
      ],
      [
        "Ġt",
        "ake"
      ],
      [
        "in",
        "c"
      ],
      [
        "in",
        "es"
      ],
      [
        "in",
        "ct"
      ],
      [
        "Ġthe",
        "se"
      ],
      [
        "er",
        "gart"
      ],
      [
        "on",
        "t"
      ],
      [
        "Ġs",
        "ing"
      ],
      [
        "Ġs",
        "ince"
      ],
      [
        "Ġs",
        "quad"
      ],
      [
        "Ġw",
        "ell"
      ],
      [
        "en",
        "se"
      ],
      [
        "Ġf",
        "em"
      ],
      [
        "Ġf",
        "ederal"
      ],
      [
        "Ġo",
        "il"
      ],
      [
        "al",
        "d"
      ],
      [
        "al",
        "e"
      ],
      [
        "at",
        "h"
      ],
      [
        "at",
        "ter"
      ],
      [
        "ar",
        "ch"
      ],
      [
        "Ġp",
        "h"
      ],
      [
        "Ġp",
        "en"
      ],
      [
        "Ġp",
        "ar"
      ],
      [
        "Ġp",
        "ol"
      ],
      [
        "Ġp",
        "rom"
      ],
      [
        "Ġp",
        "ra"
      ],
      [
        "Ġp",
        "red"
      ],
      [
        "Ġc",
        "it"
      ],
      [
        "Ġc",
        "art"
      ],
      [
        "Ġc",
        "ity"
      ],
      [
        "Ġc",
        "ount"
      ],
      [
        "Ġin",
        "j"
      ],
      [
        "Ġm",
        "en"
      ],
      [
        "Ġm",
        "od"
      ],
      [
        "Ġm",
        "ake"
      ],
      [
        "Ġm",
        "uch"
      ],
      [
        "ĠC",
        "up"
      ],
      [
        "Ġ1",
        "7"
      ],
      [
        "ac",
        "es"
      ],
      [
        "ĠA",
        "d"
      ],
      [
        "ĠA",
        "pr"
      ],
      [
        "ĠS",
        "ak"
      ],
      [
        "Ġth",
        "ough"
      ],
      [
        "st",
        "ru"
      ],
      [
        "ĠB",
        "y"
      ],
      [
        "ĠB",
        "attle"
      ],
      [
        "el",
        "ph"
      ],
      [
        "Ġre",
        "al"
      ],
      [
        "Ġre",
        "fer"
      ],
      [
        "ad",
        "ed"
      ],
      [
        "ad",
        "line"
      ],
      [
        "ad",
        "elph"
      ],
      [
        "ĠThe",
        "y"
      ],
      [
        "ĠThe",
        "re"
      ],
      [
        "Ġl",
        "it"
      ],
      [
        "Ġl",
        "abor"
      ],
      [
        "Ġbe",
        "gin"
      ],
      [
        "Ġst",
        "ill"
      ],
      [
        "ĠR",
        "ich"
      ],
      [
        "ec",
        "h"
      ],
      [
        "ec",
        "ess"
      ],
      [
        "ec",
        "ts"
      ],
      [
        "iv",
        "ing"
      ],
      [
        "ĠN",
        "ational"
      ],
      [
        "ap",
        "el"
      ],
      [
        "ch",
        "ool"
      ],
      [
        "ack",
        "s"
      ],
      [
        "ĠP",
        "res"
      ],
      [
        "her",
        "n"
      ],
      [
        "em",
        "an"
      ],
      [
        "ĠH",
        "er"
      ],
      [
        "ce",
        "pt"
      ],
      [
        "ĠJ",
        "une"
      ],
      [
        "id",
        "ent"
      ],
      [
        "th",
        "ough"
      ],
      [
        "Ġpl",
        "ace"
      ],
      [
        "Ġch",
        "ance"
      ],
      [
        "ig",
        "ious"
      ],
      [
        "Ġor",
        "gan"
      ],
      [
        "Ġde",
        "al"
      ],
      [
        "Ġde",
        "ter"
      ],
      [
        "Ġde",
        "adline"
      ],
      [
        "ĠSt",
        "e"
      ],
      [
        "and",
        "ed"
      ],
      [
        "Ġsp",
        "ir"
      ],
      [
        "Ġhe",
        "ld"
      ],
      [
        "Ġplay",
        "off"
      ],
      [
        "Ġpro",
        "v"
      ],
      [
        "ial",
        "ly"
      ],
      [
        "Ġsh",
        "ort"
      ],
      [
        "Ġ18",
        "9"
      ],
      [
        "Ġtr",
        "ans"
      ],
      [
        "Ġtr",
        "aded"
      ],
      [
        "Ġne",
        "xt"
      ],
      [
        "Ġ192",
        "9"
      ],
      [
        "Ġgo",
        "vern"
      ],
      [
        "ag",
        "ue"
      ],
      [
        "Ġper",
        "cussion"
      ],
      [
        "Ġper",
        "iod"
      ],
      [
        "Ġk",
        "ind"
      ],
      [
        "Ġwin",
        "ning"
      ],
      [
        "ater",
        "ial"
      ],
      [
        "Ġpo",
        "int"
      ],
      [
        "Ġstart",
        "ed"
      ],
      [
        "ip",
        "le"
      ],
      [
        "Ġgoal",
        "s"
      ],
      [
        "Ġman",
        "ufact"
      ],
      [
        "ib",
        "le"
      ],
      [
        "Ġthrough",
        "out"
      ],
      [
        "Ġcons",
        "ist"
      ],
      [
        "Ġro",
        "le"
      ],
      [
        "Ġrele",
        "ase"
      ],
      [
        "Ġlos",
        "s"
      ],
      [
        "aw",
        "ay"
      ],
      [
        "Ġapp",
        "ro"
      ],
      [
        "Ġapp",
        "ear"
      ],
      [
        "enc",
        "ed"
      ],
      [
        "Ġcol",
        "labor"
      ],
      [
        "Ġbec",
        "ame"
      ],
      [
        "Ġreturn",
        "ed"
      ],
      [
        "ĠGre",
        "en"
      ],
      [
        "ĠJapan",
        "ese"
      ],
      [
        "Ġest",
        "ab"
      ],
      [
        "Ġact",
        "iv"
      ],
      [
        "Ġbook",
        "s"
      ],
      [
        "Ġneed",
        "ed"
      ],
      [
        "Ġcare",
        "er"
      ],
      [
        "ĠEdm",
        "und"
      ],
      [
        "erv",
        "ation"
      ],
      [
        "Ġinf",
        "lu"
      ],
      [
        "Ġhow",
        "ever"
      ],
      [
        "ĠAustral",
        "ia"
      ],
      [
        "ergart",
        "en"
      ],
      [
        "Ġcart",
        "rid"
      ],
      [
        "ĠApr",
        "il"
      ],
      [
        "adelph",
        "ia"
      ],
      [
        "Ġkind",
        "ergarten"
      ],
      [
        "6",
        "9"
      ],
      [
        "a",
        "el"
      ],
      [
        "a",
        "id"
      ],
      [
        "a",
        "use"
      ],
      [
        "c",
        "hes"
      ],
      [
        "d",
        "en"
      ],
      [
        "e",
        "y"
      ],
      [
        "f",
        "ic"
      ],
      [
        "f",
        "for"
      ],
      [
        "g",
        "el"
      ],
      [
        "h",
        "ym"
      ],
      [
        "i",
        "i"
      ],
      [
        "i",
        "o"
      ],
      [
        "i",
        "or"
      ],
      [
        "i",
        "ent"
      ],
      [
        "i",
        "pp"
      ],
      [
        "j",
        "o"
      ],
      [
        "l",
        "o"
      ],
      [
        "l",
        "oy"
      ],
      [
        "l",
        "ake"
      ],
      [
        "m",
        "ith"
      ],
      [
        "n",
        "ow"
      ],
      [
        "p",
        "ar"
      ],
      [
        "r",
        "d"
      ],
      [
        "s",
        "p"
      ],
      [
        "u",
        "ally"
      ],
      [
        "u",
        "ki"
      ],
      [
        "v",
        "es"
      ],
      [
        "v",
        "ing"
      ],
      [
        "v",
        "ol"
      ],
      [
        "w",
        "ay"
      ],
      [
        "z",
        "e"
      ],
      [
        "ª",
        "ãĤ"
      ],
      [
        "æ",
        "Ī"
      ],
      [
        "Ġ",
        "if"
      ],
      [
        "Ġ",
        "ve"
      ],
      [
        "Ġ",
        "use"
      ],
      [
        "Ġt",
        "urn"
      ],
      [
        "Ġt",
        "ail"
      ],
      [
        "Ġt",
        "imes"
      ],
      [
        "he",
        "n"
      ],
      [
        "Ġa",
        "ff"
      ],
      [
        "or",
        "es"
      ],
      [
        "Ġs",
        "ense"
      ],
      [
        "Ġw",
        "on"
      ],
      [
        "es",
        "tern"
      ],
      [
        "it",
        "a"
      ],
      [
        "it",
        "al"
      ],
      [
        "it",
        "lake"
      ],
      [
        "Ġf",
        "ans"
      ],
      [
        "Ġo",
        "ld"
      ],
      [
        "Ġo",
        "per"
      ],
      [
        "Ġo",
        "cc"
      ],
      [
        "at",
        "ive"
      ],
      [
        "Ġp",
        "ur"
      ],
      [
        "Ġp",
        "ark"
      ],
      [
        "Ġp",
        "urch"
      ],
      [
        "Ġp",
        "resent"
      ],
      [
        "Ġc",
        "ap"
      ],
      [
        "Ġc",
        "ards"
      ],
      [
        "Ġc",
        "lub"
      ],
      [
        "Ġb",
        "o"
      ],
      [
        "Ġb",
        "ro"
      ],
      [
        "Ġb",
        "el"
      ],
      [
        "Ġb",
        "all"
      ],
      [
        "Ġb",
        "rough"
      ],
      [
        "Ġb",
        "ott"
      ],
      [
        "is",
        "on"
      ],
      [
        "as",
        "y"
      ],
      [
        "Ġto",
        "ok"
      ],
      [
        "Ġm",
        "in"
      ],
      [
        "Ġm",
        "atch"
      ],
      [
        "Ġm",
        "other"
      ],
      [
        "Ġm",
        "aking"
      ],
      [
        "Ġm",
        "ajor"
      ],
      [
        "Ġm",
        "ult"
      ],
      [
        "Ġm",
        "aterial"
      ],
      [
        "Ġd",
        "el"
      ],
      [
        "Ġd",
        "ay"
      ],
      [
        "Ġd",
        "iv"
      ],
      [
        "Ġd",
        "ut"
      ],
      [
        "ou",
        "is"
      ],
      [
        "am",
        "den"
      ],
      [
        "ĠT",
        "wo"
      ],
      [
        "ĠC",
        "an"
      ],
      [
        "ĠC",
        "oy"
      ],
      [
        "ĠC",
        "enter"
      ],
      [
        "ĠC",
        "amden"
      ],
      [
        "le",
        "gr"
      ],
      [
        "Ġ1",
        "4"
      ],
      [
        "ĠA",
        "t"
      ],
      [
        "ĠA",
        "z"
      ],
      [
        "Ġh",
        "igh"
      ],
      [
        "st",
        "em"
      ],
      [
        "Ġfor",
        "ce"
      ],
      [
        "ot",
        "o"
      ],
      [
        "ot",
        "es"
      ],
      [
        "ot",
        "ential"
      ],
      [
        "Ġn",
        "ear"
      ],
      [
        "Ġn",
        "amed"
      ],
      [
        "ur",
        "es"
      ],
      [
        "Ġl",
        "im"
      ],
      [
        "Ġl",
        "ong"
      ],
      [
        "Ġl",
        "arge"
      ],
      [
        "ter",
        "s"
      ],
      [
        "ĠM",
        "a"
      ],
      [
        "ĠM",
        "ed"
      ],
      [
        "ĠM",
        "ajor"
      ],
      [
        "ĠM",
        "arch"
      ],
      [
        "Ġst",
        "ing"
      ],
      [
        "Ġst",
        "ron"
      ],
      [
        "Ġst",
        "ud"
      ],
      [
        "ĠR",
        "ick"
      ],
      [
        "ĠR",
        "av"
      ],
      [
        "ĠR",
        "aph"
      ],
      [
        "ĠR",
        "ector"
      ],
      [
        "ĠR",
        "hym"
      ],
      [
        "Ġ19",
        "7"
      ],
      [
        "ri",
        "ed"
      ],
      [
        "Ġe",
        "p"
      ],
      [
        "Ġe",
        "qu"
      ],
      [
        "Ġe",
        "ffor"
      ],
      [
        "Ġwith",
        "in"
      ],
      [
        "iv",
        "es"
      ],
      [
        "iv",
        "il"
      ],
      [
        "Ġ2",
        "5"
      ],
      [
        "ĠL",
        "ouis"
      ],
      [
        "Ġas",
        "k"
      ],
      [
        "im",
        "oto"
      ],
      [
        "un",
        "g"
      ],
      [
        "ĠW",
        "hen"
      ],
      [
        "ĠG",
        "ame"
      ],
      [
        "ĠP",
        "itlake"
      ],
      [
        "em",
        "or"
      ],
      [
        "em",
        "ents"
      ],
      [
        "Ġan",
        "other"
      ],
      [
        "ĠH",
        "ind"
      ],
      [
        "ĠH",
        "istory"
      ],
      [
        "ĠH",
        "ym"
      ],
      [
        "ĠH",
        "itch"
      ],
      [
        "ĠCh",
        "aracter"
      ],
      [
        "Ġch",
        "urch"
      ],
      [
        "ock",
        "ey"
      ],
      [
        "Ġal",
        "though"
      ],
      [
        "Ġcon",
        "stru"
      ],
      [
        "Ġar",
        "med"
      ],
      [
        "Ġwh",
        "ite"
      ],
      [
        "itt",
        "ed"
      ],
      [
        "Ġse",
        "le"
      ],
      [
        "Ġsu",
        "per"
      ],
      [
        "ĠO",
        "ld"
      ],
      [
        "Ġplay",
        "ing"
      ],
      [
        "Ġpro",
        "t"
      ],
      [
        "for",
        "med"
      ],
      [
        "Ġthem",
        "es"
      ],
      [
        "pp",
        "er"
      ],
      [
        "ĠBlu",
        "es"
      ],
      [
        "Ġv",
        "ict"
      ],
      [
        "ĠK",
        "urt"
      ],
      [
        "Ġwork",
        "ed"
      ],
      [
        "ĠArk",
        "adelphia"
      ],
      [
        "Ġcomp",
        "le"
      ],
      [
        "hi",
        "p"
      ],
      [
        "oun",
        "ced"
      ],
      [
        "Ġord",
        "ers"
      ],
      [
        "Ġup",
        "on"
      ],
      [
        "Ġrem",
        "ov"
      ],
      [
        "Ġ194",
        "0"
      ],
      [
        "Ġ186",
        "1"
      ],
      [
        "Ġac",
        "ros"
      ],
      [
        "Ġover",
        "all"
      ],
      [
        "ens",
        "eman"
      ],
      [
        "led",
        "ge"
      ],
      [
        "Ġpos",
        "s"
      ],
      [
        "Ġpos",
        "ition"
      ],
      [
        "ĠSe",
        "ga"
      ],
      [
        "oci",
        "ation"
      ],
      [
        "Ġass",
        "emb"
      ],
      [
        "Ġev",
        "ent"
      ],
      [
        "Ġinclud",
        "ed"
      ],
      [
        "enc",
        "y"
      ],
      [
        "Ġmost",
        "ly"
      ],
      [
        "ĠLe",
        "ad"
      ],
      [
        "Ġremain",
        "ing"
      ],
      [
        "Ġsecond",
        "s"
      ],
      [
        "au",
        "gh"
      ],
      [
        "Ġweap",
        "on"
      ],
      [
        "ĠGall",
        "ia"
      ],
      [
        "Ġserv",
        "ice"
      ],
      [
        "Ġpost",
        "c"
      ],
      [
        "anc",
        "es"
      ],
      [
        "ĠNe",
        "w"
      ],
      [
        "ĠGre",
        "at"
      ],
      [
        "Ġann",
        "ounced"
      ],
      [
        "Ġchan",
        "ges"
      ],
      [
        "ped",
        "ition"
      ],
      [
        "Ġmus",
        "k"
      ],
      [
        "ĠCal",
        "am"
      ],
      [
        "Ġcompet",
        "ition"
      ],
      [
        "ob",
        "er"
      ],
      [
        "Ġed",
        "uc"
      ],
      [
        "Ġscor",
        "ed"
      ],
      [
        "Ġopen",
        "ing"
      ],
      [
        "Ġdif",
        "fer"
      ],
      [
        "ĠSen",
        "jo"
      ],
      [
        "Ġdef",
        "enseman"
      ],
      [
        "Ġiss",
        "ue"
      ],
      [
        "Ġsuff",
        "ered"
      ],
      [
        "Ġpri",
        "or"
      ],
      [
        "Ġvar",
        "ious"
      ],
      [
        "Ġavail",
        "able"
      ],
      [
        "Ġsy",
        "stem"
      ],
      [
        "Ġfel",
        "t"
      ],
      [
        "Ġfriend",
        "s"
      ],
      [
        "Ġrequ",
        "est"
      ],
      [
        "Ġlif",
        "e"
      ],
      [
        "ĠEx",
        "pedition"
      ],
      [
        "Ġhel",
        "p"
      ],
      [
        "Ġke",
        "pt"
      ],
      [
        "Ġkn",
        "own"
      ],
      [
        "Ġrif",
        "les"
      ],
      [
        "Ġcit",
        "iz"
      ],
      [
        "Ġcount",
        "ry"
      ],
      [
        "ĠSak",
        "imoto"
      ],
      [
        "ĠRich",
        "ards"
      ],
      [
        "Ġcollabor",
        "ation"
      ],
      [
        "ĠGreen",
        "away"
      ],
      [
        "Ġestab",
        "lished"
      ],
      [
        "Ġcartrid",
        "ges"
      ],
      [
        "æĪ",
        "¦"
      ],
      [
        "Ġbrough",
        "t"
      ],
      [
        "Ġbott",
        "om"
      ],
      [
        "ĠCoy",
        "otes"
      ],
      [
        "Ġstron",
        "g"
      ],
      [
        "ĠRav",
        "en"
      ],
      [
        "ĠRaph",
        "ael"
      ],
      [
        "ĠRhym",
        "es"
      ],
      [
        "ĠHind",
        "man"
      ],
      [
        "ĠHym",
        "n"
      ],
      [
        "ĠHitch",
        "cock"
      ],
      [
        "Ġacros",
        "s"
      ],
      [
        "V",
        "ision"
      ],
      [
        "a",
        "e"
      ],
      [
        "a",
        "i"
      ],
      [
        "c",
        "l"
      ],
      [
        "c",
        "ent"
      ],
      [
        "c",
        "sen"
      ],
      [
        "d",
        "ow"
      ],
      [
        "e",
        "p"
      ],
      [
        "e",
        "ad"
      ],
      [
        "e",
        "ter"
      ],
      [
        "e",
        "ff"
      ],
      [
        "g",
        "on"
      ],
      [
        "g",
        "uns"
      ],
      [
        "i",
        "ence"
      ],
      [
        "i",
        "que"
      ],
      [
        "k",
        "l"
      ],
      [
        "l",
        "l"
      ],
      [
        "l",
        "and"
      ],
      [
        "l",
        "ass"
      ],
      [
        "l",
        "og"
      ],
      [
        "l",
        "aced"
      ],
      [
        "m",
        "ission"
      ],
      [
        "n",
        "ed"
      ],
      [
        "n",
        "iel"
      ],
      [
        "n",
        "iew"
      ],
      [
        "o",
        "ach"
      ],
      [
        "p",
        "ear"
      ],
      [
        "s",
        "ki"
      ],
      [
        "t",
        "ain"
      ],
      [
        "u",
        "j"
      ],
      [
        "u",
        "es"
      ],
      [
        "u",
        "al"
      ],
      [
        "u",
        "als"
      ],
      [
        "v",
        "ed"
      ],
      [
        "¡",
        "ãĥ"
      ],
      [
        "¥",
        "ãĥ"
      ],
      [
        "¦",
        "ãĤ"
      ],
      [
        "«",
        "ãĤ"
      ],
      [
        "´",
        "ãģ®"
      ],
      [
        "å",
        "ł"
      ],
      [
        "Ġ",
        "["
      ],
      [
        "Ġ",
        "]"
      ],
      [
        "Ġ",
        "æĪ¦"
      ],
      [
        "Ń",
        "ãĥ"
      ],
      [
        "Ġt",
        "er"
      ],
      [
        "he",
        "st"
      ],
      [
        "in",
        "k"
      ],
      [
        "in",
        "s"
      ],
      [
        "in",
        "ery"
      ],
      [
        "ed",
        "ing"
      ],
      [
        "or",
        "d"
      ],
      [
        "or",
        "ic"
      ],
      [
        "or",
        "ts"
      ],
      [
        "or",
        "ring"
      ],
      [
        "Ġs",
        "it"
      ],
      [
        "Ġs",
        "om"
      ],
      [
        "Ġs",
        "ales"
      ],
      [
        "Ġs",
        "ung"
      ],
      [
        "Ġw",
        "id"
      ],
      [
        "en",
        "g"
      ],
      [
        "en",
        "ar"
      ],
      [
        "en",
        "ix"
      ],
      [
        "it",
        "ar"
      ],
      [
        "it",
        "her"
      ],
      [
        "Ġf",
        "ul"
      ],
      [
        "Ġf",
        "if"
      ],
      [
        "Ġf",
        "ron"
      ],
      [
        "Ġf",
        "low"
      ],
      [
        "Ġf",
        "old"
      ],
      [
        "Ġf",
        "ree"
      ],
      [
        "Ġf",
        "ont"
      ],
      [
        "Ġo",
        "b"
      ],
      [
        "al",
        "f"
      ],
      [
        "at",
        "a"
      ],
      [
        "at",
        "or"
      ],
      [
        "at",
        "ors"
      ],
      [
        "at",
        "ively"
      ],
      [
        "at",
        "form"
      ],
      [
        "Ġp",
        "an"
      ],
      [
        "Ġp",
        "ap"
      ],
      [
        "Ġp",
        "ack"
      ],
      [
        "Ġp",
        "air"
      ],
      [
        "Ġp",
        "ort"
      ],
      [
        "Ġc",
        "or"
      ],
      [
        "Ġc",
        "amp"
      ],
      [
        "re",
        "t"
      ],
      [
        "Ġb",
        "as"
      ],
      [
        "Ġb",
        "uild"
      ],
      [
        "Ġb",
        "od"
      ],
      [
        "Ġb",
        "ased"
      ],
      [
        "Ġb",
        "reak"
      ],
      [
        "Ġb",
        "uck"
      ],
      [
        "is",
        "od"
      ],
      [
        "is",
        "mal"
      ],
      [
        "is",
        "niew"
      ],
      [
        "Ġin",
        "cor"
      ],
      [
        "an",
        "y"
      ],
      [
        "Ġm",
        "y"
      ],
      [
        "Ġm",
        "or"
      ],
      [
        "Ġm",
        "il"
      ],
      [
        "Ġm",
        "ark"
      ],
      [
        "Ġm",
        "useum"
      ],
      [
        "Ġm",
        "unition"
      ],
      [
        "Ġd",
        "et"
      ],
      [
        "Ġd",
        "ied"
      ],
      [
        "Ġd",
        "ays"
      ],
      [
        "ou",
        "gl"
      ],
      [
        "ion",
        "al"
      ],
      [
        "am",
        "ents"
      ],
      [
        "ic",
        "s"
      ],
      [
        "ĠT",
        "re"
      ],
      [
        "ĠC",
        "urt"
      ],
      [
        "ĠC",
        "oach"
      ],
      [
        "le",
        "y"
      ],
      [
        "Ġ1",
        "5"
      ],
      [
        "ro",
        "ph"
      ],
      [
        "ĠA",
        "b"
      ],
      [
        "il",
        "ar"
      ],
      [
        "ĠS",
        "p"
      ],
      [
        "Ġg",
        "en"
      ],
      [
        "Ġg",
        "irl"
      ],
      [
        "Ġg",
        "lass"
      ],
      [
        "el",
        "ing"
      ],
      [
        "ent",
        "ly"
      ],
      [
        "ot",
        "e"
      ],
      [
        "ot",
        "ter"
      ],
      [
        "ad",
        "y"
      ],
      [
        "ad",
        "es"
      ],
      [
        "Ġn",
        "ame"
      ],
      [
        "Ġl",
        "otter"
      ],
      [
        "om",
        "es"
      ],
      [
        "ĠM",
        "c"
      ],
      [
        "ĠM",
        "e"
      ],
      [
        "ĠM",
        "us"
      ],
      [
        "ĠM",
        "ost"
      ],
      [
        "ĠM",
        "ilit"
      ],
      [
        "ĠM",
        "iss"
      ],
      [
        "Ġst",
        "ained"
      ],
      [
        "Ġst",
        "ores"
      ],
      [
        "ĠR",
        "us"
      ],
      [
        "ĠF",
        "or"
      ],
      [
        "ĠF",
        "ollowing"
      ],
      [
        "ĠF",
        "ederal"
      ],
      [
        "ĠF",
        "uj"
      ],
      [
        "ol",
        "s"
      ],
      [
        "ol",
        "og"
      ],
      [
        "ec",
        "e"
      ],
      [
        "ec",
        "ut"
      ],
      [
        "Ġe",
        "y"
      ],
      [
        "ĠN",
        "o"
      ],
      [
        "ĠN",
        "orth"
      ],
      [
        "Ġ2",
        "8"
      ],
      [
        "ĠL",
        "t"
      ],
      [
        "ĠL",
        "ast"
      ],
      [
        "im",
        "ated"
      ],
      [
        "um",
        "es"
      ],
      [
        "ap",
        "les"
      ],
      [
        "ĠW",
        "omen"
      ],
      [
        "ĠW",
        "ald"
      ],
      [
        "ĠW",
        "isniew"
      ],
      [
        "ĠG",
        "u"
      ],
      [
        "ĠG",
        "ard"
      ],
      [
        "ĠG",
        "round"
      ],
      [
        "ĠG",
        "irl"
      ],
      [
        "ĠP",
        "ro"
      ],
      [
        "ĠP",
        "ark"
      ],
      [
        "ĠP",
        "ost"
      ],
      [
        "ĠP",
        "ho"
      ],
      [
        "ĠP",
        "otential"
      ],
      [
        "ĠD",
        "ra"
      ],
      [
        "ĠD",
        "ue"
      ],
      [
        "ĠD",
        "ah"
      ],
      [
        "ĠD",
        "ougl"
      ],
      [
        "ĠH",
        "ar"
      ],
      [
        "ĠH",
        "all"
      ],
      [
        "ĠJ",
        "ames"
      ],
      [
        "ĠJ",
        "eff"
      ],
      [
        "id",
        "es"
      ],
      [
        "id",
        "ence"
      ],
      [
        "th",
        "rop"
      ],
      [
        "ist",
        "r"
      ],
      [
        "ist",
        "oric"
      ],
      [
        "ĠCh",
        "ild"
      ],
      [
        "ĠCh",
        "urch"
      ],
      [
        "ĠAr",
        "niel"
      ],
      [
        "Ġpl",
        "an"
      ],
      [
        "Ġpl",
        "aced"
      ],
      [
        "Ġpl",
        "atform"
      ],
      [
        "os",
        "p"
      ],
      [
        "Ġch",
        "ild"
      ],
      [
        "Ġch",
        "apel"
      ],
      [
        "all",
        "en"
      ],
      [
        "Ġal",
        "low"
      ],
      [
        "Ġcon",
        "v"
      ],
      [
        "ak",
        "en"
      ],
      [
        "Ġde",
        "ath"
      ],
      [
        "Ġr",
        "en"
      ],
      [
        "Ġr",
        "ather"
      ],
      [
        "Ġse",
        "ven"
      ],
      [
        "ct",
        "ure"
      ],
      [
        "ĠSt",
        "ar"
      ],
      [
        "ĠSt",
        "orring"
      ],
      [
        "ĠSt",
        "aples"
      ],
      [
        "ab",
        "ric"
      ],
      [
        "ab",
        "ility"
      ],
      [
        "ul",
        "ty"
      ],
      [
        "Ġte",
        "legr"
      ],
      [
        "ron",
        "s"
      ],
      [
        "ous",
        "ly"
      ],
      [
        "Ġsp",
        "e"
      ],
      [
        "ĠE",
        "ach"
      ],
      [
        "ĠE",
        "mp"
      ],
      [
        "ĠO",
        "rd"
      ],
      [
        "Ġun",
        "ique"
      ],
      [
        "Ġpro",
        "b"
      ],
      [
        "Ġpro",
        "f"
      ],
      [
        "Ġsh",
        "ap"
      ],
      [
        "Ġnot",
        "ed"
      ],
      [
        "Ġtr",
        "ading"
      ],
      [
        "Ġ192",
        "5"
      ],
      [
        "Ġv",
        "is"
      ],
      [
        "Ġv",
        "ide"
      ],
      [
        "ĠK",
        "now"
      ],
      [
        "ill",
        "s"
      ],
      [
        "ong",
        "s"
      ],
      [
        "Ġ4",
        "22"
      ],
      [
        "ach",
        "inery"
      ],
      [
        "ag",
        "o"
      ],
      [
        "ag",
        "ed"
      ],
      [
        "ag",
        "az"
      ],
      [
        "ort",
        "hern"
      ],
      [
        "hi",
        "b"
      ],
      [
        "Ġcont",
        "ent"
      ],
      [
        "pt",
        "ember"
      ],
      [
        "Ġle",
        "ad"
      ],
      [
        "Ġle",
        "ft"
      ],
      [
        "Ġrep",
        "resent"
      ],
      [
        "Ġrep",
        "laced"
      ],
      [
        "Ġwin",
        "dow"
      ],
      [
        "Ġ5",
        "4"
      ],
      [
        "Ġ5",
        "00"
      ],
      [
        "ĠTh",
        "at"
      ],
      [
        "per",
        "ial"
      ],
      [
        "Ġfin",
        "al"
      ],
      [
        "Ġfin",
        "ished"
      ],
      [
        "Ġ194",
        "2"
      ],
      [
        "Ġ194",
        "3"
      ],
      [
        "Ġ194",
        "8"
      ],
      [
        "Ġ186",
        "3"
      ],
      [
        "lis",
        "h"
      ],
      [
        "ãĤ",
        "¦ãĤ"
      ],
      [
        "Ġac",
        "c"
      ],
      [
        "Ġout",
        "side"
      ],
      [
        "Ġrecord",
        "ed"
      ],
      [
        "Ġdevelop",
        "ed"
      ],
      [
        "av",
        "y"
      ],
      [
        "av",
        "ing"
      ],
      [
        "int",
        "ing"
      ],
      [
        "apt",
        "ismal"
      ],
      [
        "Ġart",
        "ist"
      ],
      [
        "pr",
        "ess"
      ],
      [
        "Ġman",
        "y"
      ],
      [
        "Ġ191",
        "8"
      ],
      [
        "Ġcomm",
        "on"
      ],
      [
        "ib",
        "er"
      ],
      [
        "arter",
        "s"
      ],
      [
        "ĠSe",
        "ptember"
      ],
      [
        "Ġass",
        "ociation"
      ],
      [
        "Ġcons",
        "id"
      ],
      [
        "Ġmaskray",
        "s"
      ],
      [
        "ĠUn",
        "ion"
      ],
      [
        "Ġprevious",
        "ly"
      ],
      [
        "Ġ7",
        "5"
      ],
      [
        "Ġus",
        "ing"
      ],
      [
        "Ġdra",
        "w"
      ],
      [
        "Ġ193",
        "3"
      ],
      [
        "Ġev",
        "en"
      ],
      [
        "Ġev",
        "ents"
      ],
      [
        "Ġfl",
        "o"
      ],
      [
        "Ġremain",
        "ed"
      ],
      [
        "Ġcol",
        "or"
      ],
      [
        "Ġinter",
        "view"
      ],
      [
        "ĠAn",
        "gel"
      ],
      [
        "Ġen",
        "em"
      ],
      [
        "Ġexp",
        "anded"
      ],
      [
        "Ġserv",
        "ed"
      ],
      [
        "orn",
        "s"
      ],
      [
        "Ġsk",
        "et"
      ],
      [
        "Ġsur",
        "r"
      ],
      [
        "Ġsur",
        "round"
      ],
      [
        "Ġco",
        "aching"
      ],
      [
        "sel",
        "f"
      ],
      [
        "ĠGovern",
        "ment"
      ],
      [
        "Ġann",
        "ot"
      ],
      [
        "Ġillustr",
        "ated"
      ],
      [
        "18",
        "22"
      ],
      [
        "Ġinv",
        "ol"
      ],
      [
        "Ġmus",
        "ic"
      ],
      [
        "Ġdist",
        "rib"
      ],
      [
        "Ġrel",
        "igious"
      ],
      [
        "Ġshot",
        "guns"
      ],
      [
        "Ġed",
        "ition"
      ],
      [
        "Ġbattle",
        "field"
      ],
      [
        "iss",
        "ipp"
      ],
      [
        "Ġdif",
        "fic"
      ],
      [
        "ĠEn",
        "g"
      ],
      [
        "Ġpaint",
        "ings"
      ],
      [
        "Ġind",
        "ic"
      ],
      [
        "Ġtow",
        "er"
      ],
      [
        "Ġtow",
        "ards"
      ],
      [
        "Ġdem",
        "o"
      ],
      [
        "Ġloc",
        "ated"
      ],
      [
        "Ġstru",
        "gg"
      ],
      [
        "Ġstru",
        "cture"
      ],
      [
        "Ġ196",
        "2"
      ],
      [
        "ĠIm",
        "perial"
      ],
      [
        "ĠDar",
        "ling"
      ],
      [
        "ĠDar",
        "csen"
      ],
      [
        "Ġsupp",
        "ort"
      ],
      [
        "Ġrepair",
        "ed"
      ],
      [
        "Ġcall",
        "ed"
      ],
      [
        "Ġdest",
        "roy"
      ],
      [
        "Ġdire",
        "ct"
      ],
      [
        "ĠAfric",
        "a"
      ],
      [
        "ĠSum",
        "m"
      ],
      [
        "Ġgu",
        "itar"
      ],
      [
        "ett",
        "e"
      ],
      [
        "ĠPict",
        "ures"
      ],
      [
        "Ġposit",
        "ive"
      ],
      [
        "Ġpartic",
        "ip"
      ],
      [
        "Ġimprov",
        "ements"
      ],
      [
        "ĠQ",
        "ue"
      ],
      [
        "Ġtra",
        "w"
      ],
      [
        "Ġfem",
        "ales"
      ],
      [
        "Ġpra",
        "ised"
      ],
      [
        "Ġpred",
        "ecess"
      ],
      [
        "Ġinj",
        "ured"
      ],
      [
        "ĠBattle",
        "field"
      ],
      [
        "Ġrefer",
        "red"
      ],
      [
        "Ġbegin",
        "ning"
      ],
      [
        "Ġorgan",
        "iz"
      ],
      [
        "Ġmanufact",
        "ure"
      ],
      [
        "vol",
        "ution"
      ],
      [
        "ªãĤ",
        "¢"
      ],
      [
        "Ġpur",
        "pos"
      ],
      [
        "Ġcap",
        "ital"
      ],
      [
        "Ġmult",
        "iple"
      ],
      [
        "Ġlim",
        "ited"
      ],
      [
        "ĠMed",
        "ia"
      ],
      [
        "Ġsting",
        "ray"
      ],
      [
        "Ġep",
        "isod"
      ],
      [
        "emor",
        "ial"
      ],
      [
        "ĠCharacter",
        "s"
      ],
      [
        "Ġcomple",
        "ted"
      ],
      [
        "Ġremov",
        "ed"
      ],
      [
        "ĠLead",
        "eth"
      ],
      [
        "augh",
        "t"
      ],
      [
        "Ġpostc",
        "ards"
      ],
      [
        "ĠCalam",
        "ity"
      ],
      [
        "Ġeduc",
        "ation"
      ],
      [
        "Ġdiffer",
        "ent"
      ],
      [
        "Ġcitiz",
        "ens"
      ],
      [
        "ĠHymn",
        "s"
      ],
      [
        "¡ãĥ",
        "«ãĤ"
      ],
      [
        "¥ãĥ",
        "ªãĤ¢"
      ],
      [
        "´ãģ®",
        "ãĤ¦ãĤ"
      ],
      [
        "åł",
        "´ãģ®ãĤ¦ãĤ"
      ],
      [
        "ĠæĪ¦",
        "åł´ãģ®ãĤ¦ãĤ"
      ],
      [
        "Ńãĥ",
        "¥ãĥªãĤ¢"
      ],
      [
        "Ġsit",
        "u"
      ],
      [
        "Ġful",
        "l"
      ],
      [
        "Ġfron",
        "t"
      ],
      [
        "Ġincor",
        "por"
      ],
      [
        "Ġmunition",
        "s"
      ],
      [
        "ĠCurt",
        "is"
      ],
      [
        "Ġlotter",
        "y"
      ],
      [
        "ĠMus",
        "ic"
      ],
      [
        "ĠMiss",
        "issipp"
      ],
      [
        "ecut",
        "ive"
      ],
      [
        "ĠWald",
        "rons"
      ],
      [
        "ĠWisniew",
        "ski"
      ],
      [
        "ĠGround",
        "sel"
      ],
      [
        "ĠPho",
        "enix"
      ],
      [
        "ĠDra",
        "ft"
      ],
      [
        "ĠDah",
        "au"
      ],
      [
        "ĠDougl",
        "as"
      ],
      [
        "Ġallow",
        "ed"
      ],
      [
        "ĠStorring",
        "ton"
      ],
      [
        "Ġvide",
        "o"
      ],
      [
        "ĠKnow",
        "ledge"
      ],
      [
        "agaz",
        "ine"
      ],
      [
        "Ġsurround",
        "ing"
      ],
      [
        "Ġdiffic",
        "ulty"
      ],
      [
        "¡ãĥ«ãĤ",
        "Ńãĥ¥ãĥªãĤ¢"
      ],
      [
        "ĠæĪ¦åł´ãģ®ãĤ¦ãĤ",
        "¡ãĥ«ãĤŃãĥ¥ãĥªãĤ¢"
      ],
      [
        "ĠMississipp",
        "i"
      ],
      [
        "L",
        "C"
      ],
      [
        "a",
        "et"
      ],
      [
        "a",
        "ul"
      ],
      [
        "b",
        "in"
      ],
      [
        "c",
        "a"
      ],
      [
        "c",
        "o"
      ],
      [
        "c",
        "es"
      ],
      [
        "c",
        "led"
      ],
      [
        "d",
        "u"
      ],
      [
        "d",
        "er"
      ],
      [
        "e",
        "w"
      ],
      [
        "e",
        "op"
      ],
      [
        "g",
        "ing"
      ],
      [
        "h",
        "um"
      ],
      [
        "h",
        "ie"
      ],
      [
        "h",
        "aps"
      ],
      [
        "i",
        "am"
      ],
      [
        "j",
        "ou"
      ],
      [
        "j",
        "ust"
      ],
      [
        "j",
        "ected"
      ],
      [
        "k",
        "ner"
      ],
      [
        "l",
        "ike"
      ],
      [
        "m",
        "on"
      ],
      [
        "m",
        "as"
      ],
      [
        "m",
        "ill"
      ],
      [
        "m",
        "itted"
      ],
      [
        "n",
        "ational"
      ],
      [
        "n",
        "ised"
      ],
      [
        "o",
        "oth"
      ],
      [
        "o",
        "ice"
      ],
      [
        "p",
        "l"
      ],
      [
        "r",
        "is"
      ],
      [
        "r",
        "ain"
      ],
      [
        "r",
        "ary"
      ],
      [
        "r",
        "act"
      ],
      [
        "t",
        "al"
      ],
      [
        "u",
        "rop"
      ],
      [
        "w",
        "a"
      ],
      [
        "w",
        "an"
      ],
      [
        "w",
        "ise"
      ],
      [
        "w",
        "ays"
      ],
      [
        "y",
        "p"
      ],
      [
        "y",
        "an"
      ],
      [
        "y",
        "le"
      ],
      [
        "y",
        "log"
      ],
      [
        "y",
        "cled"
      ],
      [
        "z",
        "awa"
      ],
      [
        "Ġ",
        "$"
      ],
      [
        "Ġ",
        "%"
      ],
      [
        "Ġ",
        "Â"
      ],
      [
        "Ġ",
        "er"
      ],
      [
        "Ġ",
        "ec"
      ],
      [
        "Ġ",
        "enter"
      ],
      [
        "Ġt",
        "act"
      ],
      [
        "Ġt",
        "one"
      ],
      [
        "Ġt",
        "ript"
      ],
      [
        "Ġa",
        "ction"
      ],
      [
        "Ġa",
        "way"
      ],
      [
        "in",
        "for"
      ],
      [
        "er",
        "n"
      ],
      [
        "on",
        "es"
      ],
      [
        "on",
        "al"
      ],
      [
        "on",
        "se"
      ],
      [
        "on",
        "ton"
      ],
      [
        "on",
        "jou"
      ],
      [
        "ed",
        "ic"
      ],
      [
        "or",
        "ed"
      ],
      [
        "Ġs",
        "l"
      ],
      [
        "Ġs",
        "w"
      ],
      [
        "Ġs",
        "ac"
      ],
      [
        "Ġs",
        "et"
      ],
      [
        "Ġs",
        "um"
      ],
      [
        "Ġs",
        "ide"
      ],
      [
        "Ġs",
        "ite"
      ],
      [
        "Ġs",
        "chool"
      ],
      [
        "Ġw",
        "ay"
      ],
      [
        "Ġw",
        "all"
      ],
      [
        "Ġw",
        "est"
      ],
      [
        "Ġw",
        "ill"
      ],
      [
        "en",
        "ed"
      ],
      [
        "es",
        "ides"
      ],
      [
        "it",
        "es"
      ],
      [
        "it",
        "at"
      ],
      [
        "it",
        "ut"
      ],
      [
        "it",
        "able"
      ],
      [
        "Ġf",
        "is"
      ],
      [
        "Ġf",
        "an"
      ],
      [
        "Ġf",
        "ur"
      ],
      [
        "Ġf",
        "oc"
      ],
      [
        "Ġf",
        "un"
      ],
      [
        "Ġf",
        "ru"
      ],
      [
        "Ġf",
        "act"
      ],
      [
        "al",
        "th"
      ],
      [
        "at",
        "ory"
      ],
      [
        "ar",
        "s"
      ],
      [
        "Ġp",
        "i"
      ],
      [
        "Ġp",
        "res"
      ],
      [
        "Ġp",
        "ower"
      ],
      [
        "Ġp",
        "atch"
      ],
      [
        "Ġc",
        "ost"
      ],
      [
        "Ġc",
        "our"
      ],
      [
        "Ġc",
        "apt"
      ],
      [
        "Ġc",
        "enter"
      ],
      [
        "Ġc",
        "aps"
      ],
      [
        "Ġc",
        "entral"
      ],
      [
        "Ġc",
        "aught"
      ],
      [
        "re",
        "l"
      ],
      [
        "re",
        "ed"
      ],
      [
        "re",
        "at"
      ],
      [
        "re",
        "ased"
      ],
      [
        "Ġb",
        "on"
      ],
      [
        "Ġb",
        "ir"
      ],
      [
        "Ġb",
        "and"
      ],
      [
        "Ġb",
        "aptismal"
      ],
      [
        "is",
        "ition"
      ],
      [
        "is",
        "ia"
      ],
      [
        "Ġin",
        "it"
      ],
      [
        "Ġin",
        "sp"
      ],
      [
        "Ġto",
        "p"
      ],
      [
        "Ġto",
        "ols"
      ],
      [
        "Ġto",
        "tal"
      ],
      [
        "Ġm",
        "a"
      ],
      [
        "Ġm",
        "ar"
      ],
      [
        "Ġm",
        "ay"
      ],
      [
        "Ġm",
        "ap"
      ],
      [
        "Ġm",
        "ust"
      ],
      [
        "Ġm",
        "ember"
      ],
      [
        "Ġm",
        "aps"
      ],
      [
        "Ġm",
        "achinery"
      ],
      [
        "Ġd",
        "on"
      ],
      [
        "Ġd",
        "en"
      ],
      [
        "Ġd",
        "ark"
      ],
      [
        "Ġd",
        "one"
      ],
      [
        "ou",
        "p"
      ],
      [
        "ic",
        "ed"
      ],
      [
        "ic",
        "ago"
      ],
      [
        "ĠT",
        "o"
      ],
      [
        "ĠT",
        "un"
      ],
      [
        "ĠT",
        "od"
      ],
      [
        "ĠT",
        "uck"
      ],
      [
        "ĠC",
        "lay"
      ],
      [
        "ĠC",
        "ivil"
      ],
      [
        "le",
        "ased"
      ],
      [
        "ac",
        "ing"
      ],
      [
        "ac",
        "les"
      ],
      [
        "ro",
        "l"
      ],
      [
        "ro",
        "it"
      ],
      [
        "ĠA",
        "c"
      ],
      [
        "ĠA",
        "m"
      ],
      [
        "ĠA",
        "mer"
      ],
      [
        "il",
        "ers"
      ],
      [
        "ĠS",
        "u"
      ],
      [
        "ĠS",
        "ec"
      ],
      [
        "ĠS",
        "im"
      ],
      [
        "ĠS",
        "outh"
      ],
      [
        "ĠS",
        "chool"
      ],
      [
        "ĠS",
        "mith"
      ],
      [
        "ĠS",
        "ongs"
      ],
      [
        "Ġh",
        "ab"
      ],
      [
        "Ġh",
        "alf"
      ],
      [
        "Ġg",
        "ro"
      ],
      [
        "Ġg",
        "ray"
      ],
      [
        "Ġg",
        "arr"
      ],
      [
        "Ġg",
        "iving"
      ],
      [
        "Ġth",
        "ose"
      ],
      [
        "Ġth",
        "orns"
      ],
      [
        "ĠB",
        "e"
      ],
      [
        "Ġre",
        "jected"
      ],
      [
        "Ġre",
        "infor"
      ],
      [
        "ot",
        "ry"
      ],
      [
        "ad",
        "don"
      ],
      [
        "Ġn",
        "ation"
      ],
      [
        "Ġn",
        "ine"
      ],
      [
        "Ġn",
        "orthern"
      ],
      [
        "ur",
        "s"
      ],
      [
        "ay",
        "ed"
      ],
      [
        "Ġl",
        "ate"
      ],
      [
        "Ġl",
        "ive"
      ],
      [
        "Ġl",
        "ine"
      ],
      [
        "Ġl",
        "ower"
      ],
      [
        "Ġl",
        "ight"
      ],
      [
        "Ġl",
        "arg"
      ],
      [
        "Ġl",
        "atter"
      ],
      [
        "om",
        "mission"
      ],
      [
        "ĠM",
        "ark"
      ],
      [
        "Ġst",
        "op"
      ],
      [
        "Ġst",
        "and"
      ],
      [
        "Ġst",
        "ings"
      ],
      [
        "ĠR",
        "o"
      ],
      [
        "ĠR",
        "ed"
      ],
      [
        "ĠR",
        "if"
      ],
      [
        "ĠR",
        "iel"
      ],
      [
        "ĠR",
        "yan"
      ],
      [
        "ĠF",
        "am"
      ],
      [
        "ĠF",
        "ort"
      ],
      [
        "ĠF",
        "ootball"
      ],
      [
        "ĠF",
        "aul"
      ],
      [
        "ri",
        "es"
      ],
      [
        "ri",
        "al"
      ],
      [
        "ĠI",
        "s"
      ],
      [
        "ec",
        "kl"
      ],
      [
        "et",
        "ic"
      ],
      [
        "et",
        "ition"
      ],
      [
        "et",
        "roit"
      ],
      [
        "us",
        "ing"
      ],
      [
        "Ġe",
        "mp"
      ],
      [
        "Ġwith",
        "d"
      ],
      [
        "Ġwith",
        "out"
      ],
      [
        "iv",
        "id"
      ],
      [
        "iv",
        "ision"
      ],
      [
        "ĠN",
        "ear"
      ],
      [
        "ĠN",
        "ik"
      ],
      [
        "ĠN",
        "atur"
      ],
      [
        "ĠN",
        "eckl"
      ],
      [
        "Ġ2",
        "1"
      ],
      [
        "Ġ2",
        "9"
      ],
      [
        "ĠL",
        "os"
      ],
      [
        "ĠL",
        "ater"
      ],
      [
        "ĠL",
        "ively"
      ],
      [
        "Ġas",
        "p"
      ],
      [
        "im",
        "ent"
      ],
      [
        "um",
        "e"
      ],
      [
        "um",
        "n"
      ],
      [
        "um",
        "ents"
      ],
      [
        "ap",
        "p"
      ],
      [
        "ĠW",
        "ings"
      ],
      [
        "ĠW",
        "estern"
      ],
      [
        "ĠW",
        "addon"
      ],
      [
        "ĠP",
        "S"
      ],
      [
        "ĠP",
        "l"
      ],
      [
        "ĠP",
        "er"
      ],
      [
        "ĠP",
        "re"
      ],
      [
        "ĠP",
        "ri"
      ],
      [
        "ĠP",
        "ort"
      ],
      [
        "ĠP",
        "eter"
      ],
      [
        "ut",
        "es"
      ],
      [
        "ut",
        "out"
      ],
      [
        "ut",
        "umn"
      ],
      [
        "ĠD",
        "orn"
      ],
      [
        "ĠD",
        "asy"
      ],
      [
        "ĠD",
        "LC"
      ],
      [
        "ĠD",
        "etroit"
      ],
      [
        "ĠD",
        "ivision"
      ],
      [
        "em",
        "pted"
      ],
      [
        "ĠH",
        "ockey"
      ],
      [
        "ĠH",
        "istoric"
      ],
      [
        "ĠH",
        "onjou"
      ],
      [
        "ĠCh",
        "icago"
      ],
      [
        "Ġch",
        "arge"
      ],
      [
        "Ġch",
        "allen"
      ],
      [
        "Ġch",
        "oice"
      ],
      [
        "ver",
        "t"
      ],
      [
        "ĠV",
        "an"
      ],
      [
        "Ġar",
        "m"
      ],
      [
        "Ġwh",
        "at"
      ],
      [
        "itt",
        "ing"
      ],
      [
        "Ġde",
        "v"
      ],
      [
        "Ġr",
        "ed"
      ],
      [
        "Ġr",
        "est"
      ],
      [
        "Ġse",
        "qu"
      ],
      [
        "ct",
        "ober"
      ],
      [
        "Ġcom",
        "es"
      ],
      [
        "Ġcom",
        "ing"
      ],
      [
        "Ġcom",
        "bin"
      ],
      [
        "ab",
        "ly"
      ],
      [
        "Ġsu",
        "cc"
      ],
      [
        "ess",
        "ful"
      ],
      [
        "Ġsp",
        "l"
      ],
      [
        "Ġsp",
        "ort"
      ],
      [
        "ans",
        "en"
      ],
      [
        "ĠE",
        "xt"
      ],
      [
        "ĠE",
        "urop"
      ],
      [
        "Ġu",
        "ter"
      ],
      [
        "Ġu",
        "pper"
      ],
      [
        "ĠO",
        "t"
      ],
      [
        "ĠO",
        "ur"
      ],
      [
        "ĠO",
        "ut"
      ],
      [
        "ĠO",
        "zawa"
      ],
      [
        "ĠO",
        "ilers"
      ],
      [
        "ĠO",
        "ctober"
      ],
      [
        "gh",
        "ts"
      ],
      [
        "Ġun",
        "able"
      ],
      [
        "Ġun",
        "lock"
      ],
      [
        "Ġpro",
        "c"
      ],
      [
        "Ġpro",
        "ject"
      ],
      [
        "Ġteam",
        "s"
      ],
      [
        "Ġsh",
        "oot"
      ],
      [
        "Ġsh",
        "utout"
      ],
      [
        "Ġex",
        "hib"
      ],
      [
        "Ġfir",
        "ed"
      ],
      [
        "Ġnot",
        "ing"
      ],
      [
        "Ġthem",
        "sel"
      ],
      [
        "pp",
        "ed"
      ],
      [
        "Ġne",
        "g"
      ],
      [
        "Ġ192",
        "6"
      ],
      [
        "Ġ3",
        "0"
      ],
      [
        "ĠK",
        "ate"
      ],
      [
        "Ġdes",
        "c"
      ],
      [
        "ag",
        "ement"
      ],
      [
        "Ġcomp",
        "let"
      ],
      [
        "Ġcomp",
        "osed"
      ],
      [
        "Ġcl",
        "os"
      ],
      [
        "Ġcl",
        "osed"
      ],
      [
        "Ġpre",
        "par"
      ],
      [
        "ant",
        "ry"
      ],
      [
        "Ġcont",
        "rol"
      ],
      [
        "Ġag",
        "ency"
      ],
      [
        "Ġper",
        "cent"
      ],
      [
        "Ġle",
        "ading"
      ],
      [
        "Ġle",
        "ague"
      ],
      [
        "Ġint",
        "ended"
      ],
      [
        "Ġrep",
        "orts"
      ],
      [
        "se",
        "qu"
      ],
      [
        "uc",
        "ks"
      ],
      [
        "ik",
        "es"
      ],
      [
        "Ġspec",
        "im"
      ],
      [
        "Ġspec",
        "ial"
      ],
      [
        "Ġspec",
        "ific"
      ],
      [
        "ãģ",
        "ĭ"
      ],
      [
        "ict",
        "ing"
      ],
      [
        "ĠAl",
        "ong"
      ],
      [
        "Ġad",
        "v"
      ],
      [
        "Ġad",
        "just"
      ],
      [
        "Ġinc",
        "reased"
      ],
      [
        "ãĤ",
        "Ĥ"
      ],
      [
        "Ġac",
        "res"
      ],
      [
        "av",
        "es"
      ],
      [
        "Ġcar",
        "ried"
      ],
      [
        "Ġbuilding",
        "s"
      ],
      [
        "ĠRe",
        "volution"
      ],
      [
        "Ġdesign",
        "s"
      ],
      [
        "Ġman",
        "agement"
      ],
      [
        "Ġ191",
        "1"
      ],
      [
        "Ġ191",
        "6"
      ],
      [
        "Ġ191",
        "7"
      ],
      [
        "Ġ191",
        "9"
      ],
      [
        "ib",
        "rary"
      ],
      [
        "Ġam",
        "ong"
      ],
      [
        "Ġother",
        "wise"
      ],
      [
        "ĠSe",
        "as"
      ],
      [
        "Ġcons",
        "ecutive"
      ],
      [
        "Ġro",
        "w"
      ],
      [
        "Ġro",
        "ll"
      ],
      [
        "Ġsm",
        "ooth"
      ],
      [
        "Ġfour",
        "th"
      ],
      [
        "Ġatt",
        "ended"
      ],
      [
        "Ġatt",
        "empted"
      ],
      [
        "its",
        "u"
      ],
      [
        "Ġ193",
        "0"
      ],
      [
        "Ġ193",
        "6"
      ],
      [
        "Ġinclud",
        "e"
      ],
      [
        "og",
        "nised"
      ],
      [
        "enc",
        "es"
      ],
      [
        "Ġmilit",
        "ia"
      ],
      [
        "ĠFe",
        "eding"
      ],
      [
        "ĠLe",
        "ague"
      ],
      [
        "Ġres",
        "ul"
      ],
      [
        "Ġwor",
        "ms"
      ],
      [
        "Ġinter",
        "national"
      ],
      [
        "ĠAn",
        "t"
      ],
      [
        "ĠChrist",
        "mas"
      ],
      [
        "Ġorigin",
        "ally"
      ],
      [
        "ĠEd",
        "ition"
      ],
      [
        "ne",
        "y"
      ],
      [
        "Ġbec",
        "omes"
      ],
      [
        "Ġend",
        "ing"
      ],
      [
        "Ġsk",
        "ills"
      ],
      [
        "Ġfe",
        "eling"
      ],
      [
        "Ġpain",
        "ted"
      ],
      [
        "Ġpick",
        "s"
      ],
      [
        "ĠAs",
        "s"
      ],
      [
        "ĠMac",
        "mill"
      ],
      [
        "ĠJoh",
        "ansen"
      ],
      [
        "Ġ200",
        "7"
      ],
      [
        "gr",
        "ess"
      ],
      [
        "Ġrec",
        "ycled"
      ],
      [
        "Ġrec",
        "ognised"
      ],
      [
        "ĠNe",
        "otry"
      ],
      [
        "Ġchan",
        "ge"
      ],
      [
        "Ġadd",
        "ed"
      ],
      [
        "Ġillustr",
        "ator"
      ],
      [
        "18",
        "4"
      ],
      [
        "Ġinst",
        "ead"
      ],
      [
        "Ġmov",
        "ed"
      ],
      [
        "Ġmov",
        "es"
      ],
      [
        "Ġmov",
        "ement"
      ],
      [
        "Ġdist",
        "inct"
      ],
      [
        "ĠCal",
        "throp"
      ],
      [
        "Ġhim",
        "self"
      ],
      [
        "Ġ195",
        "4"
      ],
      [
        "Ġsub",
        "ject"
      ],
      [
        "Ġcompet",
        "ed"
      ],
      [
        "Ġoffic",
        "ers"
      ],
      [
        "Ġoffic",
        "ial"
      ],
      [
        "Ġcommand",
        "er"
      ],
      [
        "Ġest",
        "imated"
      ],
      [
        "ĠSh",
        "akes"
      ],
      [
        "ĠSen",
        "ators"
      ],
      [
        "Ġ198",
        "5"
      ],
      [
        "Ġ198",
        "8"
      ],
      [
        "ĠDe",
        "p"
      ],
      [
        "Ġdef",
        "e"
      ],
      [
        "Ġiss",
        "ued"
      ],
      [
        "ession",
        "al"
      ],
      [
        "ĠEdm",
        "onton"
      ],
      [
        "Ġpaint",
        "ing"
      ],
      [
        "Ġsign",
        "ed"
      ],
      [
        "Ġpr",
        "inc"
      ],
      [
        "Ġcal",
        "iber"
      ],
      [
        "Ġcre",
        "ate"
      ],
      [
        "Ġcre",
        "ating"
      ],
      [
        "Ġind",
        "ivid"
      ],
      [
        "Ġdec",
        "ided"
      ],
      [
        "Ġloc",
        "al"
      ],
      [
        "Ġ199",
        "7"
      ],
      [
        "ĠIm",
        "ca"
      ],
      [
        "ĠWork",
        "s"
      ],
      [
        "Ġdep",
        "icting"
      ],
      [
        "Ġran",
        "ge"
      ],
      [
        "Ġsupp",
        "ly"
      ],
      [
        "Ġhead",
        "qu"
      ],
      [
        "Ġext",
        "ent"
      ],
      [
        "Ġclass",
        "es"
      ],
      [
        "Ġresp",
        "ect"
      ],
      [
        "Ġresp",
        "onse"
      ],
      [
        "Ġsim",
        "p"
      ],
      [
        "Ġsim",
        "ilar"
      ],
      [
        "Ġfair",
        "ies"
      ],
      [
        "Ġdown",
        "lo"
      ],
      [
        "ĠCom",
        "p"
      ],
      [
        "ĠAfric",
        "an"
      ],
      [
        "ĠSc",
        "ott"
      ],
      [
        "ĠSum",
        "mer"
      ],
      [
        "Ġlist",
        "ed"
      ],
      [
        "ĠPict",
        "ure"
      ],
      [
        "Ġacqu",
        "ired"
      ],
      [
        "Ġacqu",
        "isition"
      ],
      [
        "ĠReg",
        "ular"
      ],
      [
        "Ġposit",
        "ively"
      ],
      [
        "Ġpartic",
        "ular"
      ],
      [
        "Ġaddition",
        "al"
      ],
      [
        "Ġqualif",
        "iers"
      ],
      [
        "xim",
        "ately"
      ],
      [
        "ych",
        "aet"
      ],
      [
        "Ġsing",
        "le"
      ],
      [
        "Ġph",
        "ylog"
      ],
      [
        "Ġpen",
        "al"
      ],
      [
        "Ġpol",
        "ychaet"
      ],
      [
        "Ġprom",
        "pted"
      ],
      [
        "Ġthough",
        "t"
      ],
      [
        "ĠPres",
        "ervation"
      ],
      [
        "ĠSte",
        "ve"
      ],
      [
        "Ġspir",
        "acles"
      ],
      [
        "Ġprov",
        "ided"
      ],
      [
        "Ġtrans",
        "l"
      ],
      [
        "Ġtrans",
        "fer"
      ],
      [
        "Ġgovern",
        "or"
      ],
      [
        "Ġconsist",
        "ing"
      ],
      [
        "Ġappro",
        "ximately"
      ],
      [
        "Ġappear",
        "ance"
      ],
      [
        "Ġactiv",
        "ities"
      ],
      [
        "Ġve",
        "ter"
      ],
      [
        "Ġoper",
        "ations"
      ],
      [
        "Ġpurch",
        "ased"
      ],
      [
        "Ġdut",
        "ies"
      ],
      [
        "ĠCan",
        "ucks"
      ],
      [
        "ĠAz",
        "ure"
      ],
      [
        "Ġnear",
        "ly"
      ],
      [
        "Ġ197",
        "3"
      ],
      [
        "Ġeffor",
        "ts"
      ],
      [
        "Ġconstru",
        "cted"
      ],
      [
        "Ġsele",
        "cted"
      ],
      [
        "Ġsuper",
        "v"
      ],
      [
        "Ġvict",
        "ory"
      ],
      [
        "Ġposs",
        "ession"
      ],
      [
        "Ġassemb",
        "led"
      ],
      [
        "Ġevent",
        "ually"
      ],
      [
        "Ġmusk",
        "et"
      ],
      [
        "cl",
        "us"
      ],
      [
        "pear",
        "e"
      ],
      [
        "Ġwid",
        "th"
      ],
      [
        "Ġflow",
        "ers"
      ],
      [
        "Ġpan",
        "els"
      ],
      [
        "Ġbod",
        "y"
      ],
      [
        "Ġmark",
        "ed"
      ],
      [
        "Ġdet",
        "ail"
      ],
      [
        "Ġgen",
        "us"
      ],
      [
        "ĠMilit",
        "ary"
      ],
      [
        "ĠRus",
        "hie"
      ],
      [
        "olog",
        "y"
      ],
      [
        "Ġey",
        "es"
      ],
      [
        "ĠGu",
        "ard"
      ],
      [
        "ĠGard",
        "en"
      ],
      [
        "ĠPotential",
        "s"
      ],
      [
        "ĠHar",
        "rel"
      ],
      [
        "Ġconv",
        "ention"
      ],
      [
        "Ġtelegr",
        "aph"
      ],
      [
        "ĠEmp",
        "ire"
      ],
      [
        "ĠOrd",
        "nance"
      ],
      [
        "Ġprof",
        "essional"
      ],
      [
        "Ġshap",
        "ed"
      ],
      [
        "Ġconsid",
        "ered"
      ],
      [
        "Ġdraw",
        "ings"
      ],
      [
        "Ġflo",
        "or"
      ],
      [
        "ĠAngel",
        "es"
      ],
      [
        "Ġenem",
        "y"
      ],
      [
        "Ġsket",
        "ch"
      ],
      [
        "Ġsurr",
        "ender"
      ],
      [
        "Ġannot",
        "ata"
      ],
      [
        "ĠEng",
        "lish"
      ],
      [
        "Ġdestroy",
        "ed"
      ],
      [
        "Ġdirect",
        "or"
      ],
      [
        "ĠSumm",
        "ary"
      ],
      [
        "ĠQue",
        "en"
      ],
      [
        "Ġtraw",
        "l"
      ],
      [
        "Ġorganiz",
        "ations"
      ],
      [
        "Ġfront",
        "ier"
      ],
      [
        "eop",
        "le"
      ],
      [
        "hum",
        "ously"
      ],
      [
        "Ġtact",
        "ical"
      ],
      [
        "Ġtript",
        "ych"
      ],
      [
        "Ġsum",
        "mer"
      ],
      [
        "Ġcost",
        "umes"
      ],
      [
        "Ġbir",
        "th"
      ],
      [
        "ĠTun",
        "isia"
      ],
      [
        "ĠTod",
        "d"
      ],
      [
        "ĠClay",
        "ton"
      ],
      [
        "ĠAmer",
        "ic"
      ],
      [
        "ĠSec",
        "ond"
      ],
      [
        "Ġhab",
        "itat"
      ],
      [
        "Ġgray",
        "ish"
      ],
      [
        "Ġgarr",
        "ison"
      ],
      [
        "ĠRiel",
        "a"
      ],
      [
        "ĠFaul",
        "kner"
      ],
      [
        "Ġemp",
        "loy"
      ],
      [
        "ĠNatur",
        "al"
      ],
      [
        "ĠNeckl",
        "aces"
      ],
      [
        "ĠPort",
        "able"
      ],
      [
        "ĠDasy",
        "at"
      ],
      [
        "Ġsucc",
        "essful"
      ],
      [
        "ĠExt",
        "ra"
      ],
      [
        "Ġunlock",
        "ed"
      ],
      [
        "Ġshoot",
        "out"
      ],
      [
        "Ġthemsel",
        "ves"
      ],
      [
        "ĠMacmill",
        "an"
      ],
      [
        "ĠNeotry",
        "gon"
      ],
      [
        "ĠShakes",
        "peare"
      ],
      [
        "Ġdownlo",
        "ad"
      ],
      [
        "Ġphylog",
        "en"
      ],
      [
        "Ġpolychaet",
        "e"
      ],
      [
        "4",
        "0"
      ],
      [
        "6",
        "4"
      ],
      [
        "8",
        "0"
      ],
      [
        "C",
        "N"
      ],
      [
        "C",
        "on"
      ],
      [
        "E",
        "l"
      ],
      [
        "G",
        "S"
      ],
      [
        "O",
        "S"
      ],
      [
        "T",
        "Z"
      ],
      [
        "U",
        "CN"
      ],
      [
        "a",
        "f"
      ],
      [
        "a",
        "x"
      ],
      [
        "a",
        "us"
      ],
      [
        "a",
        "un"
      ],
      [
        "a",
        "ita"
      ],
      [
        "b",
        "s"
      ],
      [
        "b",
        "y"
      ],
      [
        "b",
        "er"
      ],
      [
        "b",
        "ur"
      ],
      [
        "b",
        "ury"
      ],
      [
        "b",
        "ai"
      ],
      [
        "c",
        "om"
      ],
      [
        "c",
        "ol"
      ],
      [
        "c",
        "ial"
      ],
      [
        "c",
        "ious"
      ],
      [
        "c",
        "hest"
      ],
      [
        "d",
        "le"
      ],
      [
        "d",
        "ay"
      ],
      [
        "d",
        "ition"
      ],
      [
        "e",
        "e"
      ],
      [
        "e",
        "k"
      ],
      [
        "e",
        "or"
      ],
      [
        "e",
        "al"
      ],
      [
        "e",
        "le"
      ],
      [
        "e",
        "ks"
      ],
      [
        "f",
        "ers"
      ],
      [
        "f",
        "ace"
      ],
      [
        "f",
        "antry"
      ],
      [
        "g",
        "et"
      ],
      [
        "g",
        "ency"
      ],
      [
        "h",
        "l"
      ],
      [
        "h",
        "in"
      ],
      [
        "h",
        "old"
      ],
      [
        "i",
        "qu"
      ],
      [
        "i",
        "ated"
      ],
      [
        "i",
        "TZ"
      ],
      [
        "j",
        "i"
      ],
      [
        "j",
        "an"
      ],
      [
        "j",
        "oy"
      ],
      [
        "j",
        "ects"
      ],
      [
        "k",
        "o"
      ],
      [
        "k",
        "ed"
      ],
      [
        "k",
        "en"
      ],
      [
        "k",
        "an"
      ],
      [
        "m",
        "e"
      ],
      [
        "m",
        "all"
      ],
      [
        "m",
        "and"
      ],
      [
        "m",
        "ost"
      ],
      [
        "m",
        "ine"
      ],
      [
        "m",
        "osp"
      ],
      [
        "n",
        "t"
      ],
      [
        "n",
        "y"
      ],
      [
        "n",
        "el"
      ],
      [
        "n",
        "ess"
      ],
      [
        "n",
        "ect"
      ],
      [
        "n",
        "ell"
      ],
      [
        "o",
        "o"
      ],
      [
        "o",
        "on"
      ],
      [
        "o",
        "le"
      ],
      [
        "o",
        "iced"
      ],
      [
        "p",
        "ing"
      ],
      [
        "p",
        "re"
      ],
      [
        "p",
        "an"
      ],
      [
        "p",
        "air"
      ],
      [
        "p",
        "ond"
      ],
      [
        "r",
        "ick"
      ],
      [
        "r",
        "ant"
      ],
      [
        "r",
        "aph"
      ],
      [
        "r",
        "aments"
      ],
      [
        "s",
        "w"
      ],
      [
        "s",
        "es"
      ],
      [
        "s",
        "bur"
      ],
      [
        "t",
        "ies"
      ],
      [
        "t",
        "ry"
      ],
      [
        "t",
        "awa"
      ],
      [
        "u",
        "ge"
      ],
      [
        "u",
        "ction"
      ],
      [
        "u",
        "hl"
      ],
      [
        "v",
        "als"
      ],
      [
        "w",
        "est"
      ],
      [
        "w",
[...]
